{
  "version": "1.0",
  "truncation": null,
  "padding": null,
  "added_tokens": [
    {
      "id": 0,
      "content": "[UNK]",
      "single_word": false,
      "lstrip": false,
      "rstrip": false,
      "normalized": false,
      "special": true
    },
    {
      "id": 1,
      "content": "[PAD]",
      "single_word": false,
      "lstrip": false,
      "rstrip": false,
      "normalized": false,
      "special": true
    },
    {
      "id": 2,
      "content": "[SOS]",
      "single_word": false,
      "lstrip": false,
      "rstrip": false,
      "normalized": false,
      "special": true
    },
    {
      "id": 3,
      "content": "[EOS]",
      "single_word": false,
      "lstrip": false,
      "rstrip": false,
      "normalized": false,
      "special": true
    }
  ],
  "normalizer": {
    "type": "Lowercase"
  },
  "pre_tokenizer": {
    "type": "Whitespace"
  },
  "post_processor": {
    "type": "TemplateProcessing",
    "single": [
      {
        "SpecialToken": {
          "id": "[SOS]",
          "type_id": 0
        }
      },
      {
        "Sequence": {
          "id": "A",
          "type_id": 0
        }
      },
      {
        "SpecialToken": {
          "id": "[EOS]",
          "type_id": 0
        }
      }
    ],
    "pair": [
      {
        "Sequence": {
          "id": "A",
          "type_id": 0
        }
      },
      {
        "Sequence": {
          "id": "B",
          "type_id": 1
        }
      }
    ],
    "special_tokens": {
      "[EOS]": {
        "id": "[EOS]",
        "ids": [
          3
        ],
        "tokens": [
          "[EOS]"
        ]
      },
      "[SOS]": {
        "id": "[SOS]",
        "ids": [
          2
        ],
        "tokens": [
          "[SOS]"
        ]
      }
    }
  },
  "decoder": null,
  "model": {
    "type": "BPE",
    "dropout": null,
    "unk_token": "[UNK]",
    "continuing_subword_prefix": null,
    "end_of_word_suffix": null,
    "fuse_unk": false,
    "byte_fallback": false,
    "ignore_merges": false,
    "vocab": {
      "[UNK]": 0,
      "[PAD]": 1,
      "[SOS]": 2,
      "[EOS]": 3,
      "!": 4,
      "\"": 5,
      "#": 6,
      "$": 7,
      "%": 8,
      "&": 9,
      "'": 10,
      "(": 11,
      ")": 12,
      ",": 13,
      "-": 14,
      ".": 15,
      "/": 16,
      "0": 17,
      "1": 18,
      "2": 19,
      "3": 20,
      "4": 21,
      "5": 22,
      "6": 23,
      "7": 24,
      "8": 25,
      "9": 26,
      ":": 27,
      ";": 28,
      "=": 29,
      "?": 30,
      "@": 31,
      "_": 32,
      "`": 33,
      "a": 34,
      "b": 35,
      "c": 36,
      "d": 37,
      "e": 38,
      "f": 39,
      "g": 40,
      "h": 41,
      "i": 42,
      "j": 43,
      "k": 44,
      "l": 45,
      "m": 46,
      "n": 47,
      "o": 48,
      "p": 49,
      "q": 50,
      "r": 51,
      "s": 52,
      "t": 53,
      "u": 54,
      "v": 55,
      "w": 56,
      "x": 57,
      "y": 58,
      "z": 59,
      "ß": 60,
      "à": 61,
      "ä": 62,
      "è": 63,
      "é": 64,
      "ñ": 65,
      "ö": 66,
      "ü": 67,
      "–": 68,
      "‘": 69,
      "’": 70,
      "“": 71,
      "”": 72,
      "„": 73,
      "in": 74,
      "en": 75,
      "er": 76,
      "ein": 77,
      "an": 78,
      "ch": 79,
      "it": 80,
      "ing": 81,
      "un": 82,
      "eine": 83,
      "ar": 84,
      "st": 85,
      "au": 86,
      "on": 87,
      "man": 88,
      "th": 89,
      "le": 90,
      "re": 91,
      "ge": 92,
      "and": 93,
      "sch": 94,
      "al": 95,
      "einem": 96,
      "ro": 97,
      "und": 98,
      "ie": 99,
      "at": 100,
      "ei": 101,
      "or": 102,
      "is": 103,
      "the": 104,
      "ck": 105,
      "de": 106,
      "as": 107,
      "auf": 108,
      "mit": 109,
      "wo": 110,
      "la": 111,
      "ir": 112,
      "der": 113,
      "ra": 114,
      "el": 115,
      "et": 116,
      "of": 117,
      "mann": 118,
      "einer": 119,
      "to": 120,
      "fr": 121,
      "sp": 122,
      "men": 123,
      "es": 124,
      "si": 125,
      "hr": 126,
      "bl": 127,
      "wei": 128,
      "bo": 129,
      "ith": 130,
      "with": 131,
      "pe": 132,
      "sh": 133,
      "il": 134,
      "be": 135,
      "ung": 136,
      "ter": 137,
      "ol": 138,
      "all": 139,
      "ten": 140,
      "im": 141,
      "ers": 142,
      "sit": 143,
      "ut": 144,
      "am": 145,
      "frau": 146,
      "do": 147,
      "se": 148,
      "op": 149,
      "lo": 150,
      "wh": 151,
      "gr": 152,
      "up": 153,
      "ne": 154,
      "ur": 155,
      "we": 156,
      "iel": 157,
      "ht": 158,
      "are": 159,
      "die": 160,
      "den": 161,
      "einen": 162,
      "mä": 163,
      "um": 164,
      "ri": 165,
      "king": 166,
      "te": 167,
      "woman": 168,
      "zwei": 169,
      "gen": 170,
      "two": 171,
      "ben": 172,
      "ach": 173,
      "spiel": 174,
      "irt": 175,
      "ber": 176,
      "ball": 177,
      "zu": 178,
      "pla": 179,
      "gro": 180,
      "ste": 181,
      "ver": 182,
      "ding": 183,
      "he": 184,
      "chen": 185,
      "shirt": 186,
      "peop": 187,
      "people": 188,
      "play": 189,
      "ass": 190,
      "ack": 191,
      "ic": 192,
      "wal": 193,
      "co": 194,
      "kl": 195,
      "me": 196,
      "stand": 197,
      "aring": 198,
      "vor": 199,
      "ting": 200,
      "pers": 201,
      "war": 202,
      "person": 203,
      "hen": 204,
      "sitz": 205,
      "ft": 206,
      "sich": 207,
      "li": 208,
      "ho": 209,
      "wearing": 210,
      "ite": 211,
      "wn": 212,
      "fa": 213,
      "rei": 214,
      "ta": 215,
      "ßen": 216,
      "ind": 217,
      "yo": 218,
      "von": 219,
      "ad": 220,
      "ner": 221,
      "unge": 222,
      "ti": 223,
      "dem": 224,
      "her": 225,
      "young": 226,
      "gt": 227,
      "bei": 228,
      "red": 229,
      "junge": 230,
      "ther": 231,
      "ähr": 232,
      "fo": 233,
      "tr": 234,
      "ts": 235,
      "ile": 236,
      "ue": 237,
      "boy": 238,
      "white": 239,
      "for": 240,
      "schen": 241,
      "irl": 242,
      "out": 243,
      "äl": 244,
      "ild": 245,
      "girl": 246,
      "dchen": 247,
      "id": 248,
      "ße": 249,
      "mädchen": 250,
      "kle": 251,
      "ier": 252,
      "one": 253,
      "dog": 254,
      "hund": 255,
      "bla": 256,
      "ha": 257,
      "nen": 258,
      "mo": 259,
      "black": 260,
      "wat": 261,
      "män": 262,
      "ss": 263,
      "ce": 264,
      "hol": 265,
      "his": 266,
      "side": 267,
      "stra": 268,
      "schwar": 269,
      "lä": 270,
      "while": 271,
      "schwarz": 272,
      "bu": 273,
      "ke": 274,
      "so": 275,
      "blue": 276,
      "po": 277,
      "ren": 278,
      "eines": 279,
      "blau": 280,
      "sk": 281,
      "männer": 282,
      "stre": 283,
      "by": 284,
      "steht": 285,
      "par": 286,
      "ug": 287,
      "end": 288,
      "aus": 289,
      "sitting": 290,
      "ger": 291,
      "fahr": 292,
      "ul": 293,
      "wa": 294,
      "loo": 295,
      "child": 296,
      "ba": 297,
      "hin": 298,
      "pa": 299,
      "gel": 300,
      "sitzt": 301,
      "hand": 302,
      "standing": 303,
      "ed": 304,
      "über": 305,
      "ander": 306,
      "sen": 307,
      "playing": 308,
      "group": 309,
      "cht": 310,
      "fe": 311,
      "street": 312,
      "straße": 313,
      "ist": 314,
      "grup": 315,
      "häl": 316,
      "unter": 317,
      "ze": 318,
      "down": 319,
      "ent": 320,
      "br": 321,
      "ard": 322,
      "lan": 323,
      "gruppe": 324,
      "ve": 325,
      "ont": 326,
      "hält": 327,
      "ma": 328,
      "hem": 329,
      "währ": 330,
      "während": 331,
      "ree": 332,
      "str": 333,
      "hat": 334,
      "walking": 335,
      "ig": 336,
      "fen": 337,
      "menschen": 338,
      "ow": 339,
      "walk": 340,
      "spielt": 341,
      "front": 342,
      "ange": 343,
      "spr": 344,
      "cro": 345,
      "dre": 346,
      "hemd": 347,
      "rad": 348,
      "ell": 349,
      "ot": 350,
      "jack": 351,
      "schau": 352,
      "das": 353,
      "sm": 354,
      "car": 355,
      "fer": 356,
      "kin": 357,
      "fü": 358,
      "holding": 359,
      "other": 360,
      "ink": 361,
      "dur": 362,
      "personen": 363,
      "water": 364,
      "mach": 365,
      "some": 366,
      "tra": 367,
      "ick": 368,
      "wor": 369,
      "itt": 370,
      "amer": 371,
      "je": 372,
      "low": 373,
      "ate": 374,
      "kind": 375,
      "mp": 376,
      "ap": 377,
      "ih": 378,
      "drei": 379,
      "back": 380,
      "än": 381,
      "blauen": 382,
      "kleid": 383,
      "far": 384,
      "wass": 385,
      "bas": 386,
      "air": 387,
      "ump": 388,
      "uft": 389,
      "stehen": 390,
      "form": 391,
      "jung": 392,
      "sing": 393,
      "three": 394,
      "eil": 395,
      "ying": 396,
      "wasser": 397,
      "weißen": 398,
      "kinder": 399,
      "thro": 400,
      "ik": 401,
      "run": 402,
      "neben": 403,
      "gre": 404,
      "arbe": 405,
      "bra": 406,
      "isch": 407,
      "hinter": 408,
      "sitzen": 409,
      "sn": 410,
      "fel": 411,
      "frauen": 412,
      "lie": 413,
      "che": 414,
      "durch": 415,
      "arbeit": 416,
      "roten": 417,
      "women": 418,
      "gra": 419,
      "spring": 420,
      "gu": 421,
      "per": 422,
      "orange": 423,
      "des": 424,
      "dr": 425,
      "imm": 426,
      "bro": 427,
      "spielen": 428,
      "ble": 429,
      "green": 430,
      "looking": 431,
      "jump": 432,
      "grü": 433,
      "da": 434,
      "braun": 435,
      "litt": 436,
      "asi": 437,
      "lar": 438,
      "trä": 439,
      "little": 440,
      "geht": 441,
      "board": 442,
      "äu": 443,
      "fro": 444,
      "snow": 445,
      "ler": 446,
      "ans": 447,
      "ide": 448,
      "geb": 449,
      "farben": 450,
      "park": 451,
      "fähr": 452,
      "itar": 453,
      "fährt": 454,
      "tor": 455,
      "outside": 456,
      "ugh": 457,
      "ong": 458,
      "trägt": 459,
      "mar": 460,
      "hal": 461,
      "ground": 462,
      "large": 463,
      "ds": 464,
      "ion": 465,
      "teil": 466,
      "con": 467,
      "ks": 468,
      "mu": 469,
      "sa": 470,
      "lang": 471,
      "ober": 472,
      "over": 473,
      "through": 474,
      "hn": 475,
      "lass": 476,
      "hrer": 477,
      "om": 478,
      "hel": 479,
      "amera": 480,
      "brown": 481,
      "ket": 482,
      "yel": 483,
      "yellow": 484,
      "cle": 485,
      "bi": 486,
      "kleines": 487,
      "sie": 488,
      "children": 489,
      "weiß": 490,
      "em": 491,
      "su": 492,
      "macht": 493,
      "ph": 494,
      "blon": 495,
      "sed": 496,
      "cke": 497,
      "ute": 498,
      "eir": 499,
      "kleidung": 500,
      "springt": 501,
      "ert": 502,
      "tu": 503,
      "zen": 504,
      "ff": 505,
      "was": 506,
      "elt": 507,
      "schwarzen": 508,
      "entlang": 509,
      "from": 510,
      "kleiner": 511,
      "their": 512,
      "bü": 513,
      "into": 514,
      "age": 515,
      "vers": 516,
      "skate": 517,
      "gehen": 518,
      "ine": 519,
      "weg": 520,
      "xt": 521,
      "tan": 522,
      "spieler": 523,
      "watch": 524,
      "ning": 525,
      "di": 526,
      "buil": 527,
      "small": 528,
      "clo": 529,
      "thing": 530,
      "ght": 531,
      "ll": 532,
      "schw": 533,
      "building": 534,
      "fl": 535,
      "leute": 536,
      "ame": 537,
      "top": 538,
      "fu": 539,
      "next": 540,
      "stru": 541,
      "ssed": 542,
      "rest": 543,
      "ill": 544,
      "nach": 545,
      "schne": 546,
      "crow": 547,
      "sw": 548,
      "mehrer": 549,
      "near": 550,
      "tri": 551,
      "dressed": 552,
      "sand": 553,
      "bau": 554,
      "jacket": 555,
      "table": 556,
      "od": 557,
      "stu": 558,
      "ster": 559,
      "sur": 560,
      "fuß": 561,
      "ille": 562,
      "dy": 563,
      "off": 564,
      "kleide": 565,
      "wir": 566,
      "pink": 567,
      "oberteil": 568,
      "fahrrad": 569,
      "male": 570,
      "grass": 571,
      "gebäu": 572,
      "ving": 573,
      "ab": 574,
      "ihr": 575,
      "ly": 576,
      "rock": 577,
      "met": 578,
      "stü": 579,
      "eln": 580,
      "ob": 581,
      "shor": 582,
      "bar": 583,
      "älter": 584,
      "band": 585,
      "bri": 586,
      "ga": 587,
      "ihre": 588,
      "fi": 589,
      "aro": 590,
      "ment": 591,
      "etwas": 592,
      "riding": 593,
      "bet": 594,
      "tisch": 595,
      "old": 596,
      "running": 597,
      "mehrere": 598,
      "base": 599,
      "seinem": 600,
      "son": 601,
      "work": 602,
      "hl": 603,
      "ant": 604,
      "cken": 605,
      "großen": 606,
      "baby": 607,
      "ture": 608,
      "pro": 609,
      "jeans": 610,
      "pl": 611,
      "haar": 612,
      "qu": 613,
      "another": 614,
      "around": 615,
      "ige": 616,
      "grünen": 617,
      "motor": 618,
      "jacke": 619,
      "fiel": 620,
      "schnee": 621,
      "grund": 622,
      "ycle": 623,
      "jungen": 624,
      "its": 625,
      "schaut": 626,
      "dar": 627,
      "col": 628,
      "ity": 629,
      "brille": 630,
      "wer": 631,
      "field": 632,
      "sidewalk": 633,
      "gekleide": 634,
      "luft": 635,
      "beach": 636,
      "hoch": 637,
      "ban": 638,
      "tal": 639,
      "zug": 640,
      "tre": 641,
      "lasses": 642,
      "kop": 643,
      "frei": 644,
      "iert": 645,
      "strand": 646,
      "way": 647,
      "crowd": 648,
      "uni": 649,
      "sho": 650,
      "sto": 651,
      "hind": 652,
      "gesch": 653,
      "tain": 654,
      "foto": 655,
      "cl": 656,
      "fla": 657,
      "vol": 658,
      "cross": 659,
      "läuft": 660,
      "bike": 661,
      "go": 662,
      "nis": 663,
      "aufen": 664,
      "hut": 665,
      "foot": 666,
      "hair": 667,
      "cer": 668,
      "nä": 669,
      "läch": 670,
      "stands": 671,
      "dress": 672,
      "farbenen": 673,
      "bus": 674,
      "jumping": 675,
      "sits": 676,
      "shorts": 677,
      "sind": 678,
      "pic": 679,
      "behind": 680,
      "für": 681,
      "sehen": 682,
      "phone": 683,
      "ping": 684,
      "zt": 685,
      "head": 686,
      "hintergrund": 687,
      "bre": 688,
      "menge": 689,
      "door": 690,
      "tion": 691,
      "ful": 692,
      "baseball": 693,
      "kopf": 694,
      "uck": 695,
      "halten": 696,
      "freien": 697,
      "bt": 698,
      "dan": 699,
      "musi": 700,
      "ko": 701,
      "nt": 702,
      "basket": 703,
      "igen": 704,
      "sc": 705,
      "sam": 706,
      "hän": 707,
      "jo": 708,
      "ice": 709,
      "ang": 710,
      "gebäude": 711,
      "city": 712,
      "ating": 713,
      "blick": 714,
      "anderen": 715,
      "zeug": 716,
      "background": 717,
      "skateboard": 718,
      "iling": 719,
      "fahrer": 720,
      "junger": 721,
      "vier": 722,
      "stad": 723,
      "gelben": 724,
      "hü": 725,
      "mer": 726,
      "tter": 727,
      "wall": 728,
      "zei": 729,
      "gras": 730,
      "vorbei": 731,
      "cing": 732,
      "arm": 733,
      "det": 734,
      "feld": 735,
      "asian": 736,
      "ischen": 737,
      "ation": 738,
      "ped": 739,
      "girls": 740,
      "plat": 741,
      "kü": 742,
      "kt": 743,
      "wie": 744,
      "essen": 745,
      "ör": 746,
      "na": 747,
      "bic": 748,
      "player": 749,
      "win": 750,
      "cher": 751,
      "comp": 752,
      "untain": 753,
      "sche": 754,
      "picture": 755,
      "tennis": 756,
      "perform": 757,
      "looks": 758,
      "mü": 759,
      "ves": 760,
      "dogs": 761,
      "stei": 762,
      "gegen": 763,
      "football": 764,
      "ty": 765,
      "ort": 766,
      "four": 767,
      "guitar": 768,
      "pu": 769,
      "andere": 770,
      "boden": 771,
      "older": 772,
      "ling": 773,
      "tem": 774,
      "uniform": 775,
      "veral": 776,
      "fußball": 777,
      "that": 778,
      "camera": 779,
      "tel": 780,
      "gitar": 781,
      "several": 782,
      "schwarzer": 783,
      "als": 784,
      "deck": 785,
      "kleine": 786,
      "asiat": 787,
      "pol": 788,
      "blond": 789,
      "gn": 790,
      "pul": 791,
      "boo": 792,
      "hne": 793,
      "kamera": 794,
      "eren": 795,
      "aur": 796,
      "mid": 797,
      "pan": 798,
      "richt": 799,
      "hunde": 800,
      "gest": 801,
      "basketball": 802,
      "schn": 803,
      "team": 804,
      "boys": 805,
      "nähe": 806,
      "schie": 807,
      "soc": 808,
      "dle": 809,
      "fon": 810,
      "pre": 811,
      "carr": 812,
      "kar": 813,
      "restaur": 814,
      "wird": 815,
      "ak": 816,
      "set": 817,
      "weiße": 818,
      "hor": 819,
      "stri": 820,
      "beim": 821,
      "auto": 822,
      "geh": 823,
      "talking": 824,
      "ct": 825,
      "fin": 826,
      "sten": 827,
      "something": 828,
      "ucht": 829,
      "under": 830,
      "lady": 831,
      "dun": 832,
      "tt": 833,
      "pool": 834,
      "us": 835,
      "swe": 836,
      "kleinen": 837,
      "weißer": 838,
      "soccer": 839,
      "einander": 840,
      "food": 841,
      "wagen": 842,
      "schu": 843,
      "menschenmenge": 844,
      "along": 845,
      "ip": 846,
      "use": 847,
      "walks": 848,
      "guy": 849,
      "ade": 850,
      "kid": 851,
      "vie": 852,
      "rosa": 853,
      "boar": 854,
      "working": 855,
      "uch": 856,
      "paar": 857,
      "schwimm": 858,
      "fahren": 859,
      "restaurant": 860,
      "gether": 861,
      "together": 862,
      "road": 863,
      "rennen": 864,
      "grau": 865,
      "stadt": 866,
      "wand": 867,
      "itet": 868,
      "ish": 869,
      "gray": 870,
      "smiling": 871,
      "gitarre": 872,
      "ern": 873,
      "spe": 874,
      "bank": 875,
      "tet": 876,
      "suit": 877,
      "schla": 878,
      "ction": 879,
      "has": 880,
      "liegt": 881,
      "sonnen": 882,
      "bicycle": 883,
      "bere": 884,
      "him": 885,
      "rot": 886,
      "game": 887,
      "les": 888,
      "rennt": 889,
      "plays": 890,
      "ich": 891,
      "führ": 892,
      "rü": 893,
      "zusam": 894,
      "kel": 895,
      "straßen": 896,
      "bench": 897,
      "bal": 898,
      "ka": 899,
      "pfer": 900,
      "arbeiter": 901,
      "außen": 902,
      "bahn": 903,
      "fre": 904,
      "tur": 905,
      "ater": 906,
      "schauen": 907,
      "ische": 908,
      "hose": 909,
      "them": 910,
      "face": 911,
      "iten": 912,
      "holds": 913,
      "zusammen": 914,
      "rau": 915,
      "är": 916,
      "ieren": 917,
      "ihren": 918,
      "bes": 919,
      "schlä": 920,
      "pf": 921,
      "mountain": 922,
      "anzug": 923,
      "ded": 924,
      "glasses": 925,
      "posi": 926,
      "clim": 927,
      "pants": 928,
      "net": 929,
      "chair": 930,
      "pain": 931,
      "ust": 932,
      "scha": 933,
      "dern": 934,
      "herum": 935,
      "coup": 936,
      "steig": 937,
      "dirt": 938,
      "pur": 939,
      "get": 940,
      "room": 941,
      "braunen": 942,
      "brauner": 943,
      "outdoor": 944,
      "ca": 945,
      "ple": 946,
      "atch": 947,
      "sign": 948,
      "abo": 949,
      "äft": 950,
      "instru": 951,
      "stage": 952,
      "platz": 953,
      "kauf": 954,
      "wach": 955,
      "zie": 956,
      "kletter": 957,
      "carrying": 958,
      "pp": 959,
      "boat": 960,
      "train": 961,
      "älterer": 962,
      "couple": 963,
      "ken": 964,
      "sein": 965,
      "light": 966,
      "ser": 967,
      "alt": 968,
      "ckt": 969,
      "fest": 970,
      "female": 971,
      "bühne": 972,
      "ies": 973,
      "shop": 974,
      "woo": 975,
      "draußen": 976,
      "day": 977,
      "mau": 978,
      "lea": 979,
      "bedeck": 980,
      "tree": 981,
      "eing": 982,
      "flo": 983,
      "laufen": 984,
      "tag": 985,
      "climb": 986,
      "fall": 987,
      "kur": 988,
      "sieht": 989,
      "long": 990,
      "coat": 991,
      "ex": 992,
      "mic": 993,
      "outf": 994,
      "bag": 995,
      "gi": 996,
      "schü": 997,
      "befin": 998,
      "race": 999,
      "cor": 1000,
      "baum": 1001,
      "geschäft": 1002,
      "gehweg": 1003,
      "ley": 1004,
      "ps": 1005,
      "za": 1006,
      "rol": 1007,
      "look": 1008,
      "bild": 1009,
      "hell": 1010,
      "sun": 1011,
      "seine": 1012,
      "elle": 1013,
      "blickt": 1014,
      "sle": 1015,
      "taking": 1016,
      "wachsen": 1017,
      "ckey": 1018,
      "kn": 1019,
      "mik": 1020,
      "hinunter": 1021,
      "each": 1022,
      "middle": 1023,
      "ses": 1024,
      "schir": 1025,
      "mikro": 1026,
      "land": 1027,
      "arbeitet": 1028,
      "iz": 1029,
      "uth": 1030,
      "amm": 1031,
      "tele": 1032,
      "ight": 1033,
      "dabei": 1034,
      "lächeln": 1035,
      "pass": 1036,
      "bow": 1037,
      "doing": 1038,
      "seinen": 1039,
      "ted": 1040,
      "pho": 1041,
      "zeit": 1042,
      "lau": 1043,
      "micro": 1044,
      "sport": 1045,
      "boarder": 1046,
      "photo": 1047,
      "tragen": 1048,
      "helm": 1049,
      "across": 1050,
      "watching": 1051,
      "iting": 1052,
      "boot": 1053,
      "ican": 1054,
      "there": 1055,
      "dark": 1056,
      "zer": 1057,
      "area": 1058,
      "holz": 1059,
      "ischer": 1060,
      "angen": 1061,
      "read": 1062,
      "lich": 1063,
      "ines": 1064,
      "bür": 1065,
      "flag": 1066,
      "cks": 1067,
      "wing": 1068,
      "roll": 1069,
      "län": 1070,
      "versucht": 1071,
      "store": 1072,
      "gar": 1073,
      "alter": 1074,
      "arbeiten": 1075,
      "ften": 1076,
      "io": 1077,
      "stein": 1078,
      "cover": 1079,
      "jumps": 1080,
      "hands": 1081,
      "ading": 1082,
      "stat": 1083,
      "ath": 1084,
      "cli": 1085,
      "gesich": 1086,
      "who": 1087,
      "horse": 1088,
      "helmet": 1089,
      "igh": 1090,
      "zeigt": 1091,
      "kids": 1092,
      "kes": 1093,
      "große": 1094,
      "toy": 1095,
      "dow": 1096,
      "cre": 1097,
      "performing": 1098,
      "dame": 1099,
      "ette": 1100,
      "swing": 1101,
      "music": 1102,
      "art": 1103,
      "cow": 1104,
      "gestrei": 1105,
      "bun": 1106,
      "hosen": 1107,
      "eating": 1108,
      "ins": 1109,
      "shirts": 1110,
      "machen": 1111,
      "color": 1112,
      "kun": 1113,
      "ru": 1114,
      "lichen": 1115,
      "ski": 1116,
      "lächelt": 1117,
      "being": 1118,
      "fam": 1119,
      "using": 1120,
      "pack": 1121,
      "striped": 1122,
      "orangefarbenen": 1123,
      "bürger": 1124,
      "famil": 1125,
      "put": 1126,
      "tze": 1127,
      "mouth": 1128,
      "ihrem": 1129,
      "show": 1130,
      "stuhl": 1131,
      "gh": 1132,
      "ker": 1133,
      "sung": 1134,
      "fris": 1135,
      "gather": 1136,
      "utz": 1137,
      "ältere": 1138,
      "motorrad": 1139,
      "can": 1140,
      "many": 1141,
      "teen": 1142,
      "hang": 1143,
      "ired": 1144,
      "iger": 1145,
      "spa": 1146,
      "bele": 1147,
      "adul": 1148,
      "ihm": 1149,
      "she": 1150,
      "purple": 1151,
      "ons": 1152,
      "grill": 1153,
      "junges": 1154,
      "bürgersteig": 1155,
      "gew": 1156,
      "constru": 1157,
      "mas": 1158,
      "wet": 1159,
      "erwachsen": 1160,
      "ash": 1161,
      "gle": 1162,
      "fire": 1163,
      "slee": 1164,
      "this": 1165,
      "towar": 1166,
      "new": 1167,
      "haired": 1168,
      "outfit": 1169,
      "liest": 1170,
      "swimm": 1171,
      "kunst": 1172,
      "rä": 1173,
      "spricht": 1174,
      "groß": 1175,
      "dri": 1176,
      "enjo": 1177,
      "anderer": 1178,
      "surf": 1179,
      "posing": 1180,
      "unterhalten": 1181,
      "runs": 1182,
      "window": 1183,
      "führt": 1184,
      "schaft": 1185,
      "schirm": 1186,
      "ces": 1187,
      "no": 1188,
      "uss": 1189,
      "feu": 1190,
      "ikan": 1191,
      "graff": 1192,
      "mantel": 1193,
      "reading": 1194,
      "players": 1195,
      "markt": 1196,
      "roller": 1197,
      "gg": 1198,
      "sunglasses": 1199,
      "construction": 1200,
      "graffit": 1201,
      "telefon": 1202,
      "ey": 1203,
      "flow": 1204,
      "vest": 1205,
      "betra": 1206,
      "mat": 1207,
      "inst": 1208,
      "wald": 1209,
      "line": 1210,
      "stick": 1211,
      "past": 1212,
      "haaren": 1213,
      "high": 1214,
      "kon": 1215,
      "cean": 1216,
      "clothing": 1217,
      "weißem": 1218,
      "ocean": 1219,
      "pferd": 1220,
      "microphone": 1221,
      "elder": 1222,
      "gelän": 1223,
      "cap": 1224,
      "fish": 1225,
      "haus": 1226,
      "uter": 1227,
      "schild": 1228,
      "meer": 1229,
      "covered": 1230,
      "bik": 1231,
      "gl": 1232,
      "hill": 1233,
      "zum": 1234,
      "iter": 1235,
      "workers": 1236,
      "afr": 1237,
      "ele": 1238,
      "del": 1239,
      "during": 1240,
      "motorc": 1241,
      "computer": 1242,
      "viele": 1243,
      "ßt": 1244,
      "grauen": 1245,
      "raum": 1246,
      "sonnenbrille": 1247,
      "watches": 1248,
      "dis": 1249,
      "dra": 1250,
      "kor": 1251,
      "kör": 1252,
      "bright": 1253,
      "dancing": 1254,
      "climbing": 1255,
      "aga": 1256,
      "box": 1257,
      "hockey": 1258,
      "blauem": 1259,
      "trick": 1260,
      "iv": 1261,
      "num": 1262,
      "blu": 1263,
      "beob": 1264,
      "gekleidete": 1265,
      "beobach": 1266,
      "seiner": 1267,
      "sha": 1268,
      "open": 1269,
      "elderly": 1270,
      "kick": 1271,
      "bee": 1272,
      "plan": 1273,
      "zuschau": 1274,
      "truck": 1275,
      "felsen": 1276,
      "dunkel": 1277,
      "ian": 1278,
      "round": 1279,
      "blo": 1280,
      "trink": 1281,
      "against": 1282,
      "ac": 1283,
      "pen": 1284,
      "ars": 1285,
      "lap": 1286,
      "spielzeug": 1287,
      "coo": 1288,
      "hu": 1289,
      "kam": 1290,
      "len": 1291,
      "nf": 1292,
      "ated": 1293,
      "asse": 1294,
      "berg": 1295,
      "fence": 1296,
      "fenster": 1297,
      "tank": 1298,
      "stück": 1299,
      "mütze": 1300,
      "ring": 1301,
      "ep": 1302,
      "fol": 1303,
      "kom": 1304,
      "ufer": 1305,
      "let": 1306,
      "umbre": 1307,
      "singt": 1308,
      "volley": 1309,
      "klettert": 1310,
      "gesicht": 1311,
      "feuer": 1312,
      "catch": 1313,
      "vel": 1314,
      "ür": 1315,
      "stell": 1316,
      "ored": 1317,
      "ition": 1318,
      "rides": 1319,
      "smile": 1320,
      "ihnen": 1321,
      "market": 1322,
      "frisbee": 1323,
      "graffiti": 1324,
      "mm": 1325,
      "pier": 1326,
      "cket": 1327,
      "swimming": 1328,
      "volleyball": 1329,
      "kostü": 1330,
      "sli": 1331,
      "they": 1332,
      "very": 1333,
      "about": 1334,
      "publ": 1335,
      "book": 1336,
      "five": 1337,
      "blumen": 1338,
      "lin": 1339,
      "sel": 1340,
      "sack": 1341,
      "fünf": 1342,
      "obje": 1343,
      "wooden": 1344,
      "ssen": 1345,
      "trees": 1346,
      "posiert": 1347,
      "kit": 1348,
      "having": 1349,
      "waiting": 1350,
      "versamm": 1351,
      "darauf": 1352,
      "pullo": 1353,
      "star": 1354,
      "regen": 1355,
      "appe": 1356,
      "floor": 1357,
      "rie": 1358,
      "stum": 1359,
      "thers": 1360,
      "bade": 1361,
      "mikrofon": 1362,
      "colorful": 1363,
      "pullover": 1364,
      "öff": 1365,
      "einige": 1366,
      "jeman": 1367,
      "du": 1368,
      "ien": 1369,
      "zur": 1370,
      "blauer": 1371,
      "wirft": 1372,
      "befindet": 1373,
      "dge": 1374,
      "cour": 1375,
      "igar": 1376,
      "hügel": 1377,
      "getting": 1378,
      "kot": 1379,
      "costum": 1380,
      "klein": 1381,
      "ance": 1382,
      "cart": 1383,
      "körper": 1384,
      "body": 1385,
      "becken": 1386,
      "liche": 1387,
      "trying": 1388,
      "chtet": 1389,
      "cowboy": 1390,
      "motorcycle": 1391,
      "aning": 1392,
      "asen": 1393,
      "sweat": 1394,
      "ev": 1395,
      "kan": 1396,
      "sof": 1397,
      "sta": 1398,
      "schutz": 1399,
      "winter": 1400,
      "bereitet": 1401,
      "springen": 1402,
      "bor": 1403,
      "gol": 1404,
      "sehr": 1405,
      "denen": 1406,
      "schwarzem": 1407,
      "statue": 1408,
      "cell": 1409,
      "kis": 1410,
      "night": 1411,
      "pie": 1412,
      "ycli": 1413,
      "iet": 1414,
      "buch": 1415,
      "hnt": 1416,
      "gekleideter": 1417,
      "busy": 1418,
      "yclist": 1419,
      "chten": 1420,
      "scho": 1421,
      "singing": 1422,
      "trikot": 1423,
      "stock": 1424,
      "cut": 1425,
      "zw": 1426,
      "isst": 1427,
      "mitten": 1428,
      "drink": 1429,
      "rut": 1430,
      "brü": 1431,
      "schuhen": 1432,
      "instrumen": 1433,
      "ju": 1434,
      "stair": 1435,
      "rotem": 1436,
      "seite": 1437,
      "langen": 1438,
      "grün": 1439,
      "wiese": 1440,
      "oder": 1441,
      "anz": 1442,
      "sil": 1443,
      "tasche": 1444,
      "schwarze": 1445,
      "path": 1446,
      "zaun": 1447,
      "teena": 1448,
      "big": 1449,
      "sst": 1450,
      "roter": 1451,
      "sprung": 1452,
      "kindern": 1453,
      "compet": 1454,
      "kampf": 1455,
      "kitchen": 1456,
      "sell": 1457,
      "ys": 1458,
      "less": 1459,
      "clothe": 1460,
      "scht": 1461,
      "ride": 1462,
      "licher": 1463,
      "prep": 1464,
      "ja": 1465,
      "ppe": 1466,
      "äut": 1467,
      "laying": 1468,
      "whe": 1469,
      "männern": 1470,
      "part": 1471,
      "radfahrer": 1472,
      "dler": 1473,
      "ku": 1474,
      "lehnt": 1475,
      "bluse": 1476,
      "hats": 1477,
      "gestreiften": 1478,
      "ny": 1479,
      "wartet": 1480,
      "paper": 1481,
      "track": 1482,
      "tanzen": 1483,
      "schnei": 1484,
      "fluss": 1485,
      "fle": 1486,
      "gy": 1487,
      "hof": 1488,
      "tim": 1489,
      "inside": 1490,
      "unden": 1491,
      "plast": 1492,
      "verkauf": 1493,
      "clothes": 1494,
      "others": 1495,
      "sä": 1496,
      "tro": 1497,
      "ase": 1498,
      "sub": 1499,
      "maul": 1500,
      "lla": 1501,
      "malt": 1502,
      "ked": 1503,
      "surround": 1504,
      "grassy": 1505,
      "metall": 1506,
      "werden": 1507,
      "cellphone": 1508,
      "see": 1509,
      "river": 1510,
      "assen": 1511,
      "parade": 1512,
      "making": 1513,
      "someone": 1514,
      "brick": 1515,
      "treppe": 1516,
      "ruck": 1517,
      "uten": 1518,
      "viel": 1519,
      "metal": 1520,
      "voller": 1521,
      "posieren": 1522,
      "kä": 1523,
      "wel": 1524,
      "reitet": 1525,
      "schrei": 1526,
      "ders": 1527,
      "takes": 1528,
      "brun": 1529,
      "backpack": 1530,
      "push": 1531,
      "seil": 1532,
      "zimm": 1533,
      "geben": 1534,
      "oberkörper": 1535,
      "hör": 1536,
      "stone": 1537,
      "spor": 1538,
      "grüne": 1539,
      "äumen": 1540,
      "laugh": 1541,
      "umbrella": 1542,
      "wheel": 1543,
      "hö": 1544,
      "mil": 1545,
      "überqu": 1546,
      "änger": 1547,
      "liegen": 1548,
      "fotogra": 1549,
      "full": 1550,
      "beleb": 1551,
      "towards": 1552,
      "bat": 1553,
      "oben": 1554,
      "pad": 1555,
      "ere": 1556,
      "schul": 1557,
      "laden": 1558,
      "warten": 1559,
      "surfer": 1560,
      "enjoying": 1561,
      "sweatshirt": 1562,
      "zimmer": 1563,
      "kö": 1564,
      "aut": 1565,
      "police": 1566,
      "zieht": 1567,
      "cal": 1568,
      "tle": 1569,
      "ator": 1570,
      "reifen": 1571,
      "party": 1572,
      "colored": 1573,
      "dance": 1574,
      "mauer": 1575,
      "fter": 1576,
      "hard": 1577,
      "innen": 1578,
      "eich": 1579,
      "cheer": 1580,
      "snowboarder": 1581,
      "gekleidet": 1582,
      "igarette": 1583,
      "tern": 1584,
      "gend": 1585,
      "house": 1586,
      "phon": 1587,
      "schlag": 1588,
      "ready": 1589,
      "handy": 1590,
      "drum": 1591,
      "bikin": 1592,
      "instrument": 1593,
      "spaz": 1594,
      "betrachtet": 1595,
      "piece": 1596,
      "zwischen": 1597,
      "com": 1598,
      "fee": 1599,
      "bil": 1600,
      "cam": 1601,
      "leuten": 1602,
      "genie": 1603,
      "fore": 1604,
      "masch": 1605,
      "blonde": 1606,
      "studen": 1607,
      "photogra": 1608,
      "bäumen": 1609,
      "fli": 1610,
      "mal": 1611,
      "smo": 1612,
      "rain": 1613,
      "temp": 1614,
      "renn": 1615,
      "richtung": 1616,
      "pra": 1617,
      "ess": 1618,
      "amerikan": 1619,
      "musik": 1620,
      "sweater": 1621,
      "turn": 1622,
      "painting": 1623,
      "pick": 1624,
      "rode": 1625,
      "schläft": 1626,
      "bowling": 1627,
      "cur": 1628,
      "dach": 1629,
      "tire": 1630,
      "ugg": 1631,
      "worker": 1632,
      "icht": 1633,
      "min": 1634,
      "eis": 1635,
      "lake": 1636,
      "utter": 1637,
      "lila": 1638,
      "bull": 1639,
      "bauarbeiter": 1640,
      "fangen": 1641,
      "gang": 1642,
      "lit": 1643,
      "ved": 1644,
      "test": 1645,
      "isten": 1646,
      "american": 1647,
      "above": 1648,
      "häut": 1649,
      "ure": 1650,
      "led": 1651,
      "tritt": 1652,
      "ierten": 1653,
      "haben": 1654,
      "african": 1655,
      "pit": 1656,
      "tie": 1657,
      "schö": 1658,
      "wehr": 1659,
      "weste": 1660,
      "immt": 1661,
      "going": 1662,
      "händen": 1663,
      "shopping": 1664,
      "adults": 1665,
      "teenager": 1666,
      "gym": 1667,
      "rodeo": 1668,
      "iend": 1669,
      "kne": 1670,
      "ven": 1671,
      "äss": 1672,
      "onto": 1673,
      "couch": 1674,
      "küche": 1675,
      "bedeckten": 1676,
      "beobachtet": 1677,
      "kre": 1678,
      "tat": 1679,
      "inter": 1680,
      "stä": 1681,
      "rope": 1682,
      "miteinander": 1683,
      "dies": 1684,
      "herunter": 1685,
      "wave": 1686,
      "snowy": 1687,
      "kleinkind": 1688,
      "ück": 1689,
      "tod": 1690,
      "too": 1691,
      "männ": 1692,
      "poin": 1693,
      "dunkl": 1694,
      "subway": 1695,
      "surrounded": 1696,
      "rucksack": 1697,
      "ihrer": 1698,
      "ates": 1699,
      "friend": 1700,
      "tanzt": 1701,
      "hlen": 1702,
      "werk": 1703,
      "uniforms": 1704,
      "bikini": 1705,
      "ki": 1706,
      "mt": 1707,
      "mel": 1708,
      "like": 1709,
      "gelbe": 1710,
      "crowded": 1711,
      "outdoors": 1712,
      "pat": 1713,
      "inking": 1714,
      "leg": 1715,
      "gem": 1716,
      "getr": 1717,
      "verschie": 1718,
      "pole": 1719,
      "convers": 1720,
      "skateboarder": 1721,
      "rücken": 1722,
      "event": 1723,
      "bir": 1724,
      "gear": 1725,
      "poliz": 1726,
      "schiebt": 1727,
      "schwimmbecken": 1728,
      "beside": 1729,
      "smiles": 1730,
      "ron": 1731,
      "schein": 1732,
      "wood": 1733,
      "flug": 1734,
      "bart": 1735,
      "bur": 1736,
      "rand": 1737,
      "ton": 1738,
      "vom": 1739,
      "ungen": 1740,
      "sky": 1741,
      "swim": 1742,
      "befinden": 1743,
      "after": 1744,
      "fing": 1745,
      "hmen": 1746,
      "yard": 1747,
      "einkauf": 1748,
      "ise": 1749,
      "make": 1750,
      "schaukel": 1751,
      "orangefarben": 1752,
      "drinking": 1753,
      "bridge": 1754,
      "gewäss": 1755,
      "fotograf": 1756,
      "bble": 1757,
      "tischen": 1758,
      "beton": 1759,
      "shoes": 1760,
      "family": 1761,
      "class": 1762,
      "pon": 1763,
      "scar": 1764,
      "welle": 1765,
      "station": 1766,
      "sion": 1767,
      "beau": 1768,
      "lot": 1769,
      "aged": 1770,
      "flowers": 1771,
      "brücke": 1772,
      "maschine": 1773,
      "cr": 1774,
      "tau": 1775,
      "fern": 1776,
      "zuschauer": 1777,
      "toddler": 1778,
      "well": 1779,
      "mittel": 1780,
      "tiful": 1781,
      "fountain": 1782,
      "läche": 1783,
      "guys": 1784,
      "gathered": 1785,
      "geträn": 1786,
      "beautiful": 1787,
      "hil": 1788,
      "nimmt": 1789,
      "sold": 1790,
      "umgeben": 1791,
      "papier": 1792,
      "brett": 1793,
      "arms": 1794,
      "asiatische": 1795,
      "kurzen": 1796,
      "hanging": 1797,
      "kämp": 1798,
      "away": 1799,
      "mon": 1800,
      "anst": 1801,
      "armen": 1802,
      "leap": 1803,
      "hängt": 1804,
      "just": 1805,
      "trad": 1806,
      "zo": 1807,
      "legt": 1808,
      "row": 1809,
      "offen": 1810,
      "ween": 1811,
      "skirt": 1812,
      "gelb": 1813,
      "short": 1814,
      "view": 1815,
      "preparing": 1816,
      "tradition": 1817,
      "cra": 1818,
      "equ": 1819,
      "kaufen": 1820,
      "mi": 1821,
      "squ": 1822,
      "xing": 1823,
      "stop": 1824,
      "alten": 1825,
      "mitt": 1826,
      "span": 1827,
      "marath": 1828,
      "haarige": 1829,
      "glas": 1830,
      "schneidet": 1831,
      "flip": 1832,
      "fet": 1833,
      "ry": 1834,
      "vi": 1835,
      "leaning": 1836,
      "tour": 1837,
      "ballo": 1838,
      "steps": 1839,
      "tables": 1840,
      "offic": 1841,
      "gebäudes": 1842,
      "familie": 1843,
      "sleeping": 1844,
      "großer": 1845,
      "laptop": 1846,
      "object": 1847,
      "costume": 1848,
      "verkauft": 1849,
      "gold": 1850,
      "chter": 1851,
      "schri": 1852,
      "attemp": 1853,
      "take": 1854,
      "try": 1855,
      "gerade": 1856,
      "machine": 1857,
      "halb": 1858,
      "fishing": 1859,
      "marathon": 1860,
      "cup": 1861,
      "ctor": 1862,
      "ham": 1863,
      "ial": 1864,
      "angel": 1865,
      "does": 1866,
      "veranst": 1867,
      "pose": 1868,
      "trail": 1869,
      "rosafarbenen": 1870,
      "geländer": 1871,
      "trinkt": 1872,
      "versammelt": 1873,
      "jemand": 1874,
      "bel": 1875,
      "fläche": 1876,
      "mpe": 1877,
      "tun": 1878,
      "wen": 1879,
      "ges": 1880,
      "atten": 1881,
      "plaid": 1882,
      "home": 1883,
      "aussehen": 1884,
      "clu": 1885,
      "altung": 1886,
      "bunten": 1887,
      "kostüm": 1888,
      "glass": 1889,
      "kr": 1890,
      "tür": 1891,
      "vide": 1892,
      "rail": 1893,
      "benut": 1894,
      "shirtless": 1895,
      "ulp": 1896,
      "clown": 1897,
      "adult": 1898,
      "erwachsene": 1899,
      "stairs": 1900,
      "hi": 1901,
      "nel": 1902,
      "sal": 1903,
      "sco": 1904,
      "med": 1905,
      "läufer": 1906,
      "gerä": 1907,
      "ihn": 1908,
      "rocks": 1909,
      "teams": 1910,
      "autos": 1911,
      "chairs": 1912,
      "school": 1913,
      "veranstaltung": 1914,
      "ms": 1915,
      "ün": 1916,
      "arti": 1917,
      "rote": 1918,
      "fahrzeug": 1919,
      "füll": 1920,
      "korb": 1921,
      "spazieren": 1922,
      "din": 1923,
      "fisch": 1924,
      "hnen": 1925,
      "ient": 1926,
      "jers": 1927,
      "blä": 1928,
      "bed": 1929,
      "gentle": 1930,
      "reihe": 1931,
      "wett": 1932,
      "telefoniert": 1933,
      "brunnen": 1934,
      "jersey": 1935,
      "hit": 1936,
      "kra": 1937,
      "ls": 1938,
      "match": 1939,
      "rasen": 1940,
      "tall": 1941,
      "wä": 1942,
      "chines": 1943,
      "fru": 1944,
      "dock": 1945,
      "hebt": 1946,
      "happ": 1947,
      "kün": 1948,
      "fußballspieler": 1949,
      "belebten": 1950,
      "tattoo": 1951,
      "chas": 1952,
      "gep": 1953,
      "ramp": 1954,
      "wed": 1955,
      "hemden": 1956,
      "weißes": 1957,
      "sonn": 1958,
      "blicken": 1959,
      "schwimmt": 1960,
      "freie": 1961,
      "schlägt": 1962,
      "sunny": 1963,
      "selling": 1964,
      "pract": 1965,
      "mutter": 1966,
      "stung": 1967,
      "racing": 1968,
      "tent": 1969,
      "forest": 1970,
      "kehr": 1971,
      "scre": 1972,
      "setting": 1973,
      "boarding": 1974,
      "video": 1975,
      "emp": 1976,
      "kat": 1977,
      "lachen": 1978,
      "bear": 1979,
      "hot": 1980,
      "key": 1981,
      "immel": 1982,
      "proje": 1983,
      "kopfbedeck": 1984,
      "ious": 1985,
      "rädern": 1986,
      "cheerlea": 1987,
      "gewässer": 1988,
      "equip": 1989,
      "fliegt": 1990,
      "mul": 1991,
      "por": 1992,
      "schm": 1993,
      "decke": 1994,
      "blow": 1995,
      "ally": 1996,
      "hohen": 1997,
      "tiger": 1998,
      "schneebedeckten": 1999,
      "bereiten": 2000,
      "zeitung": 2001,
      "bikes": 2002,
      "vielen": 2003,
      "scarf": 2004,
      "freiem": 2005,
      "don": 2006,
      "himmel": 2007,
      "kap": 2008,
      "vo": 2009,
      "ßer": 2010,
      "einigen": 2011,
      "ats": 2012,
      "both": 2013,
      "diese": 2014,
      "listen": 2015,
      "hoop": 2016,
      "isches": 2017,
      "rüstung": 2018,
      "corner": 2019,
      "putting": 2020,
      "konz": 2021,
      "kommt": 2022,
      "grünem": 2023,
      "glo": 2024,
      "orangen": 2025,
      "lad": 2026,
      "rist": 2027,
      "lässt": 2028,
      "hinauf": 2029,
      "throw": 2030,
      "throwing": 2031,
      "ikum": 2032,
      "stufen": 2033,
      "scen": 2034,
      "hände": 2035,
      "balan": 2036,
      "flower": 2037,
      "feuerwehr": 2038,
      "slide": 2039,
      "publikum": 2040,
      "time": 2041,
      "pushing": 2042,
      "schrift": 2043,
      "künst": 2044,
      "sonnigen": 2045,
      "dig": 2046,
      "flie": 2047,
      "gner": 2048,
      "pfa": 2049,
      "ügen": 2050,
      "att": 2051,
      "ladies": 2052,
      "mannschaft": 2053,
      "befest": 2054,
      "olin": 2055,
      "place": 2056,
      "have": 2057,
      "dien": 2058,
      "between": 2059,
      "break": 2060,
      "public": 2061,
      "zogen": 2062,
      "equipment": 2063,
      "dist": 2064,
      "hic": 2065,
      "wander": 2066,
      "chs": 2067,
      "ching": 2068,
      "leben": 2069,
      "aten": 2070,
      "where": 2071,
      "bereich": 2072,
      "coun": 2073,
      "ausrüstung": 2074,
      "vehic": 2075,
      "sofa": 2076,
      "laughing": 2077,
      "köp": 2078,
      "kämpfen": 2079,
      "cture": 2080,
      "ecke": 2081,
      "nack": 2082,
      "repar": 2083,
      "alte": 2084,
      "beard": 2085,
      "klei": 2086,
      "eller": 2087,
      "snowboard": 2088,
      "pictures": 2089,
      "instruments": 2090,
      "dunklen": 2091,
      "fight": 2092,
      "uchen": 2093,
      "vend": 2094,
      "unten": 2095,
      "stro": 2096,
      "stange": 2097,
      "ned": 2098,
      "zuschauen": 2099,
      "blaue": 2100,
      "check": 2101,
      "shoul": 2102,
      "boots": 2103,
      "bereit": 2104,
      "öffent": 2105,
      "vendor": 2106,
      "bs": 2107,
      "hei": 2108,
      "ause": 2109,
      "augen": 2110,
      "sigen": 2111,
      "bott": 2112,
      "skier": 2113,
      "bett": 2114,
      "voll": 2115,
      "nah": 2116,
      "asiatischer": 2117,
      "spea": 2118,
      "spect": 2119,
      "freund": 2120,
      "woods": 2121,
      "golf": 2122,
      "plastic": 2123,
      "kopfbedeckung": 2124,
      "bier": 2125,
      "zelt": 2126,
      "reach": 2127,
      "gemü": 2128,
      "which": 2129,
      "spielplatz": 2130,
      "playground": 2131,
      "hoo": 2132,
      "tive": 2133,
      "poses": 2134,
      "works": 2135,
      "concre": 2136,
      "blondes": 2137,
      "produ": 2138,
      "schläger": 2139,
      "number": 2140,
      "phones": 2141,
      "städ": 2142,
      "künstler": 2143,
      "concrete": 2144,
      "sei": 2145,
      "ush": 2146,
      "var": 2147,
      "vio": 2148,
      "wr": 2149,
      "wur": 2150,
      "ings": 2151,
      "ingt": 2152,
      "mannes": 2153,
      "herr": 2154,
      "dire": 2155,
      "illed": 2156,
      "typ": 2157,
      "uses": 2158,
      "ziegel": 2159,
      "ppen": 2160,
      "nummer": 2161,
      "überqueren": 2162,
      "mittler": 2163,
      "enter": 2164,
      "conc": 2165,
      "stühlen": 2166,
      "midair": 2167,
      "reads": 2168,
      "jugend": 2169,
      "bär": 2170,
      "fei": 2171,
      "rampe": 2172,
      "spie": 2173,
      "mensch": 2174,
      "beer": 2175,
      "suits": 2176,
      "shovel": 2177,
      "führen": 2178,
      "ival": 2179,
      "bare": 2180,
      "kha": 2181,
      "link": 2182,
      "spre": 2183,
      "beg": 2184,
      "seated": 2185,
      "bucket": 2186,
      "ängt": 2187,
      "davon": 2188,
      "karierten": 2189,
      "schuh": 2190,
      "kunststück": 2191,
      "biker": 2192,
      "ators": 2193,
      "ag": 2194,
      "fig": 2195,
      "kla": 2196,
      "lk": 2197,
      "lauf": 2198,
      "pet": 2199,
      "six": 2200,
      "westen": 2201,
      "zusehen": 2202,
      "verschne": 2203,
      "ausge": 2204,
      "braune": 2205,
      "overall": 2206,
      "shore": 2207,
      "fallen": 2208,
      "schür": 2209,
      "dunkelhäut": 2210,
      "genießt": 2211,
      "verschieden": 2212,
      "distance": 2213,
      "ast": 2214,
      "har": 2215,
      "sol": 2216,
      "eng": 2217,
      "anim": 2218,
      "alle": 2219,
      "attire": 2220,
      "assi": 2221,
      "site": 2222,
      "what": 2223,
      "nehmen": 2224,
      "right": 2225,
      "indian": 2226,
      "strecke": 2227,
      "bags": 2228,
      "cream": 2229,
      "toward": 2230,
      "zuschauern": 2231,
      "court": 2232,
      "pfad": 2233,
      "lebens": 2234,
      "mittleren": 2235,
      "zä": 2236,
      "left": 2237,
      "schauf": 2238,
      "mitte": 2239,
      "lacht": 2240,
      "spl": 2241,
      "sechs": 2242,
      "vorder": 2243,
      "gelber": 2244,
      "feln": 2245,
      "sca": 2246,
      "gibt": 2247,
      "cooking": 2248,
      "but": 2249,
      "filled": 2250,
      "igt": 2251,
      "rap": 2252,
      "blan": 2253,
      "rider": 2254,
      "sprit": 2255,
      "paint": 2256,
      "garten": 2257,
      "alters": 2258,
      "vests": 2259,
      "lined": 2260,
      "cutting": 2261,
      "smoking": 2262,
      "kneel": 2263,
      "benutzt": 2264,
      "country": 2265,
      "gemüse": 2266,
      "bis": 2267,
      "ium": 2268,
      "mund": 2269,
      "wrest": 2270,
      "alley": 2271,
      "eten": 2272,
      "skop": 2273,
      "buildings": 2274,
      "baseballspieler": 2275,
      "müll": 2276,
      "gegenstand": 2277,
      "pulling": 2278,
      "cliff": 2279,
      "gleich": 2280,
      "großes": 2281,
      "rutsche": 2282,
      "photograph": 2283,
      "fun": 2284,
      "gänger": 2285,
      "vis": 2286,
      "wi": 2287,
      "mother": 2288,
      "unterhält": 2289,
      "vege": 2290,
      "obst": 2291,
      "protest": 2292,
      "treten": 2293,
      "goal": 2294,
      "trinken": 2295,
      "fäl": 2296,
      "pup": 2297,
      "sup": 2298,
      "unt": 2299,
      "roof": 2300,
      "immen": 2301,
      "oper": 2302,
      "zusieht": 2303,
      "vert": 2304,
      "tramp": 2305,
      "haariger": 2306,
      "unifor": 2307,
      "fotos": 2308,
      "crossing": 2309,
      "musiker": 2310,
      "nahe": 2311,
      "stellt": 2312,
      "appears": 2313,
      "soft": 2314,
      "friends": 2315,
      "tunnel": 2316,
      "practic": 2317,
      "concert": 2318,
      "aben": 2319,
      "hik": 2320,
      "außer": 2321,
      "schal": 2322,
      "weihn": 2323,
      "zuschaut": 2324,
      "bubble": 2325,
      "edge": 2326,
      "few": 2327,
      "nebeneinander": 2328,
      "helmen": 2329,
      "close": 2330,
      "fußgänger": 2331,
      "karate": 2332,
      "horses": 2333,
      "mountains": 2334,
      "showing": 2335,
      "surfboard": 2336,
      "block": 2337,
      "scheint": 2338,
      "bearded": 2339,
      "spectators": 2340,
      "blanket": 2341,
      "weihnach": 2342,
      "ear": 2343,
      "ffer": 2344,
      "iff": 2345,
      "nat": 2346,
      "anten": 2347,
      "stelle": 2348,
      "offee": 2349,
      "oph": 2350,
      "mem": 2351,
      "bathing": 2352,
      "pair": 2353,
      "cars": 2354,
      "sax": 2355,
      "wash": 2356,
      "structure": 2357,
      "nachts": 2358,
      "sonne": 2359,
      "bicyclist": 2360,
      "pflan": 2361,
      "bb": 2362,
      "cy": 2363,
      "hall": 2364,
      "kappe": 2365,
      "pr": 2366,
      "arts": 2367,
      "rela": 2368,
      "gebiet": 2369,
      "tanz": 2370,
      "nearby": 2371,
      "flaster": 2372,
      "dresses": 2373,
      "performs": 2374,
      "kniet": 2375,
      "driving": 2376,
      "elec": 2377,
      "hula": 2378,
      "anzügen": 2379,
      "schlagzeug": 2380,
      "einkaufs": 2381,
      "coffee": 2382,
      "pile": 2383,
      "zigarette": 2384,
      "spra": 2385,
      "waren": 2386,
      "tial": 2387,
      "streckt": 2388,
      "hinten": 2389,
      "braut": 2390,
      "apron": 2391,
      "hals": 2392,
      "mud": 2393,
      "versuchen": 2394,
      "triko": 2395,
      "carries": 2396,
      "rotes": 2397,
      "outfits": 2398,
      "kostümen": 2399,
      "trikots": 2400,
      "ging": 2401,
      "mö": 2402,
      "mir": 2403,
      "rug": 2404,
      "aren": 2405,
      "atz": 2406,
      "eimer": 2407,
      "orient": 2408,
      "tier": 2409,
      "beige": 2410,
      "nacht": 2411,
      "mehreren": 2412,
      "schuhe": 2413,
      "uchten": 2414,
      "cake": 2415,
      "leaves": 2416,
      "beleucht": 2417,
      "display": 2418,
      "beobachten": 2419,
      "kommen": 2420,
      "fruit": 2421,
      "cigarette": 2422,
      "eth": 2423,
      "fängt": 2424,
      "ive": 2425,
      "lt": 2426,
      "rt": 2427,
      "ugt": 2428,
      "strei": 2429,
      "shot": 2430,
      "parked": 2431,
      "feet": 2432,
      "aper": 2433,
      "farbi": 2434,
      "farbenfro": 2435,
      "flü": 2436,
      "prof": 2437,
      "werfen": 2438,
      "jog": 2439,
      "prepar": 2440,
      "painted": 2441,
      "students": 2442,
      "gentleman": 2443,
      "various": 2444,
      "schürze": 2445,
      "dau": 2446,
      "käu": 2447,
      "scoo": 2448,
      "stän": 2449,
      "leiter": 2450,
      "gegner": 2451,
      "desk": 2452,
      "railing": 2453,
      "ume": 2454,
      "younger": 2455,
      "beide": 2456,
      "wait": 2457,
      "geld": 2458,
      "farbener": 2459,
      "martial": 2460,
      "talks": 2461,
      "gogg": 2462,
      "raucht": 2463,
      "flagge": 2464,
      "afrikan": 2465,
      "finger": 2466,
      "vehicle": 2467,
      "öffentlichen": 2468,
      "khaki": 2469,
      "oriental": 2470,
      "goggles": 2471,
      "afro": 2472,
      "nicht": 2473,
      "que": 2474,
      "tän": 2475,
      "wanderer": 2476,
      "stie": 2477,
      "tha": 2478,
      "ferne": 2479,
      "flying": 2480,
      "hüten": 2481,
      "betrachten": 2482,
      "rutscht": 2483,
      "drums": 2484,
      "bottle": 2485,
      "verschneiten": 2486,
      "weihnachts": 2487,
      "dass": 2488,
      "grei": 2489,
      "lying": 2490,
      "mes": 2491,
      "pi": 2492,
      "erin": 2493,
      "ches": 2494,
      "stö": 2495,
      "reden": 2496,
      "schei": 2497,
      "spit": 2498,
      "blasen": 2499,
      "ops": 2500,
      "parking": 2501,
      "brush": 2502,
      "grüner": 2503,
      "rocky": 2504,
      "flasche": 2505,
      "gehsteig": 2506,
      "klettern": 2507,
      "flags": 2508,
      "eyes": 2509,
      "kicking": 2510,
      "konzert": 2511,
      "bers": 2512,
      "bad": 2513,
      "cat": 2514,
      "nic": 2515,
      "pher": 2516,
      "tü": 2517,
      "ende": 2518,
      "ery": 2519,
      "onlook": 2520,
      "schle": 2521,
      "last": 2522,
      "spaper": 2523,
      "oly": 2524,
      "tran": 2525,
      "gerü": 2526,
      "waves": 2527,
      "zeu": 2528,
      "chef": 2529,
      "guckt": 2530,
      "gebung": 2531,
      "safet": 2532,
      "blonden": 2533,
      "differ": 2534,
      "tric": 2535,
      "jackets": 2536,
      "stern": 2537,
      "werb": 2538,
      "nast": 2539,
      "gestell": 2540,
      "swinging": 2541,
      "gestreif": 2542,
      "erwachsener": 2543,
      "newspaper": 2544,
      "ivid": 2545,
      "folgt": 2546,
      "coming": 2547,
      "gymnast": 2548,
      "conversation": 2549,
      "hammer": 2550,
      "lebensmittel": 2551,
      "softball": 2552,
      "prepares": 2553,
      "safety": 2554,
      "case": 2555,
      "ffen": 2556,
      "pil": 2557,
      "sort": 2558,
      "tes": 2559,
      "arme": 2560,
      "leuchten": 2561,
      "alen": 2562,
      "hold": 2563,
      "itary": 2564,
      "zeich": 2565,
      "tennisball": 2566,
      "kay": 2567,
      "ziehen": 2568,
      "schüler": 2569,
      "bunch": 2570,
      "plane": 2571,
      "costumes": 2572,
      "drinks": 2573,
      "sports": 2574,
      "gloves": 2575,
      "bärtiger": 2576,
      "practicing": 2577,
      "außerhalb": 2578,
      "scooter": 2579,
      "different": 2580,
      "cir": 2581,
      "fil": 2582,
      "ians": 2583,
      "ous": 2584,
      "ssi": 2585,
      "wind": 2586,
      "ungs": 2587,
      "verkehr": 2588,
      "sicht": 2589,
      "cement": 2590,
      "untergang": 2591,
      "cleaning": 2592,
      "skateboarding": 2593,
      "basketballspieler": 2594,
      "presen": 2595,
      "kurz": 2596,
      "skifahrer": 2597,
      "competition": 2598,
      "gemein": 2599,
      "happy": 2600,
      "vogel": 2601,
      "listening": 2602,
      "ladder": 2603,
      "scene": 2604,
      "befestig": 2605,
      "kleidern": 2606,
      "cyclist": 2607,
      "py": 2608,
      "vy": 2609,
      "sty": 2610,
      "staring": 2611,
      "dessen": 2612,
      "lage": 2613,
      "licht": 2614,
      "items": 2615,
      "individ": 2616,
      "blaues": 2617,
      "lange": 2618,
      "inkt": 2619,
      "damen": 2620,
      "schwimmen": 2621,
      "surft": 2622,
      "gaz": 2623,
      "schlagen": 2624,
      "sonnenuntergang": 2625,
      "cafe": 2626,
      "signs": 2627,
      "zurück": 2628,
      "plastik": 2629,
      "männliche": 2630,
      "polizist": 2631,
      "gerät": 2632,
      "artist": 2633,
      "spiegel": 2634,
      "greift": 2635,
      "onlookers": 2636,
      "gerüst": 2637,
      "individu": 2638,
      "bä": 2639,
      "bin": 2640,
      "same": 2641,
      "tä": 2642,
      "yor": 2643,
      "audien": 2644,
      "lett": 2645,
      "ied": 2646,
      "aufschrift": 2647,
      "lawn": 2648,
      "rais": 2649,
      "uring": 2650,
      "counter": 2651,
      "klassen": 2652,
      "meal": 2653,
      "dio": 2654,
      "busines": 2655,
      "bicycles": 2656,
      "giving": 2657,
      "geschäfts": 2658,
      "mask": 2659,
      "öffnet": 2660,
      "gelbem": 2661,
      "bird": 2662,
      "fotografiert": 2663,
      "hilft": 2664,
      "balloon": 2665,
      "blätter": 2666,
      "empty": 2667,
      "kapu": 2668,
      "köpfi": 2669,
      "violet": 2670,
      "tänzer": 2671,
      "audience": 2672,
      "card": 2673,
      "ctive": 2674,
      "haufen": 2675,
      "lö": 2676,
      "pal": 2677,
      "rop": 2678,
      "beugt": 2679,
      "among": 2680,
      "urch": 2681,
      "balls": 2682,
      "liert": 2683,
      "beiden": 2684,
      "bush": 2685,
      "tuch": 2686,
      "dium": 2687,
      "talk": 2688,
      "lights": 2689,
      "cord": 2690,
      "bowl": 2691,
      "liches": 2692,
      "kuchen": 2693,
      "schreibt": 2694,
      "hört": 2695,
      "military": 2696,
      "leaps": 2697,
      "städtischen": 2698,
      "afroamerikan": 2699,
      "business": 2700,
      "cting": 2701,
      "gie": 2702,
      "jap": 2703,
      "os": 2704,
      "pun": 2705,
      "ziel": 2706,
      "unbefestig": 2707,
      "lesen": 2708,
      "gets": 2709,
      "wohn": 2710,
      "spar": 2711,
      "weiter": 2712,
      "umgebung": 2713,
      "achen": 2714,
      "haare": 2715,
      "stret": 2716,
      "obser": 2717,
      "platform": 2718,
      "ärmel": 2719,
      "gathering": 2720,
      "motorradfahrer": 2721,
      "gging": 2722,
      "sliding": 2723,
      "silver": 2724,
      "überquert": 2725,
      "schönen": 2726,
      "pointing": 2727,
      "polizisten": 2728,
      "getränk": 2729,
      "wedding": 2730,
      "screen": 2731,
      "sprechen": 2732,
      "vegetables": 2733,
      "thaar": 2734,
      "japan": 2735,
      "cers": 2736,
      "cts": 2737,
      "gers": 2738,
      "jün": 2739,
      "leine": 2740,
      "mmer": 2741,
      "not": 2742,
      "pfen": 2743,
      "vater": 2744,
      "zel": 2745,
      "rothaar": 2746,
      "hrt": 2747,
      "before": 2748,
      "ural": 2749,
      "hed": 2750,
      "facing": 2751,
      "taschen": 2752,
      "streets": 2753,
      "made": 2754,
      "jacken": 2755,
      "muster": 2756,
      "gegend": 2757,
      "netz": 2758,
      "schüss": 2759,
      "landschaft": 2760,
      "erwachsenen": 2761,
      "versammeln": 2762,
      "competing": 2763,
      "flugzeug": 2764,
      "chasing": 2765,
      "schmutz": 2766,
      "nacktem": 2767,
      "splash": 2768,
      "käufer": 2769,
      "york": 2770,
      "jünger": 2771,
      "fra": 2772,
      "fell": 2773,
      "nur": 2774,
      "nick": 2775,
      "tar": 2776,
      "labor": 2777,
      "tow": 2778,
      "hren": 2779,
      "bli": 2780,
      "neck": 2781,
      "urban": 2782,
      "ballon": 2783,
      "ical": 2784,
      "life": 2785,
      "mobil": 2786,
      "keit": 2787,
      "handschuhen": 2788,
      "crouch": 2789,
      "druck": 2790,
      "blonder": 2791,
      "abge": 2792,
      "helmets": 2793,
      "surfing": 2794,
      "huge": 2795,
      "silber": 2796,
      "keyboard": 2797,
      "speaking": 2798,
      "uniformen": 2799,
      "saxoph": 2800,
      "gestreiftem": 2801,
      "eu": 2802,
      "ffel": 2803,
      "sl": 2804,
      "wein": 2805,
      "wunder": 2806,
      "cha": 2807,
      "leeren": 2808,
      "schlau": 2809,
      "cker": 2810,
      "father": 2811,
      "tries": 2812,
      "post": 2813,
      "dreht": 2814,
      "halt": 2815,
      "bride": 2816,
      "plate": 2817,
      "kopfhör": 2818,
      "sculp": 2819,
      "zeichen": 2820,
      "asiatischen": 2821,
      "rück": 2822,
      "pferde": 2823,
      "cano": 2824,
      "kampfsport": 2825,
      "schreib": 2826,
      "classroom": 2827,
      "wellen": 2828,
      "violin": 2829,
      "club": 2830,
      "kran": 2831,
      "schlauch": 2832,
      "bst": 2833,
      "cust": 2834,
      "gun": 2835,
      "hau": 2836,
      "itten": 2837,
      "leder": 2838,
      "schlit": 2839,
      "ieht": 2840,
      "decor": 2841,
      "seen": 2842,
      "fast": 2843,
      "fahrt": 2844,
      "waits": 2845,
      "geln": 2846,
      "sings": 2847,
      "farbenem": 2848,
      "lassen": 2849,
      "purse": 2850,
      "climbs": 2851,
      "garden": 2852,
      "sticks": 2853,
      "disc": 2854,
      "badeanzug": 2855,
      "genießen": 2856,
      "soldaten": 2857,
      "traditional": 2858,
      "fighting": 2859,
      "bm": 2860,
      "cau": 2861,
      "cand": 2862,
      "kir": 2863,
      "van": 2864,
      "stamm": 2865,
      "town": 2866,
      "touch": 2867,
      "weibli": 2868,
      "bewachsen": 2869,
      "tiv": 2870,
      "watte": 2871,
      "gelbes": 2872,
      "entspan": 2873,
      "singen": 2874,
      "fels": 2875,
      "tricks": 2876,
      "studio": 2877,
      "treppen": 2878,
      "hängen": 2879,
      "ippe": 2880,
      "musicians": 2881,
      "kissing": 2882,
      "jagt": 2883,
      "kreu": 2884,
      "seifen": 2885,
      "animal": 2886,
      "prin": 2887,
      "mirro": 2888,
      "rugby": 2889,
      "arena": 2890,
      "belt": 2891,
      "eben": 2892,
      "ohne": 2893,
      "ras": 2894,
      "sy": 2895,
      "sor": 2896,
      "sänger": 2897,
      "tack": 2898,
      "zz": 2899,
      "inmitten": 2900,
      "ched": 2901,
      "christ": 2902,
      "stroller": 2903,
      "lebr": 2904,
      "wobei": 2905,
      "bogen": 2906,
      "berü": 2907,
      "sicher": 2908,
      "tail": 2909,
      "trun": 2910,
      "waters": 2911,
      "skating": 2912,
      "walkway": 2913,
      "runner": 2914,
      "sucht": 2915,
      "iges": 2916,
      "colle": 2917,
      "gekleideten": 2918,
      "schnell": 2919,
      "swee": 2920,
      "schlamm": 2921,
      "kaf": 2922,
      "females": 2923,
      "exam": 2924,
      "mikrophon": 2925,
      "rollerbla": 2926,
      "geländem": 2927,
      "milit": 2928,
      "writing": 2929,
      "verschiedene": 2930,
      "washing": 2931,
      "scheibe": 2932,
      "schlitten": 2933,
      "fan": 2934,
      "fans": 2935,
      "ift": 2936,
      "pause": 2937,
      "indoor": 2938,
      "eins": 2939,
      "stir": 2940,
      "stunt": 2941,
      "refle": 2942,
      "ession": 2943,
      "ily": 2944,
      "oline": 2945,
      "allow": 2946,
      "umarm": 2947,
      "ballons": 2948,
      "hea": 2949,
      "hole": 2950,
      "skater": 2951,
      "wasch": 2952,
      "braunem": 2953,
      "parkplatz": 2954,
      "diving": 2955,
      "schwingt": 2956,
      "jockey": 2957,
      "gegenüber": 2958,
      "polo": 2959,
      "grauem": 2960,
      "sunset": 2961,
      "sled": 2962,
      "starrt": 2963,
      "regenschirm": 2964,
      "riesigen": 2965,
      "schutzhelm": 2966,
      "partic": 2967,
      "mult": 2968,
      "shoulder": 2969,
      "lkw": 2970,
      "kneeling": 2971,
      "pflanzen": 2972,
      "stiefeln": 2973,
      "custom": 2974,
      "cu": 2975,
      "cas": 2976,
      "jak": 2977,
      "ktion": 2978,
      "port": 2979,
      "tzen": 2980,
      "einge": 2981,
      "itor": 2982,
      "legen": 2983,
      "lay": 2984,
      "dert": 2985,
      "pea": 2986,
      "ters": 2987,
      "wear": 2988,
      "bergen": 2989,
      "verkleide": 2990,
      "schwarzes": 2991,
      "sohn": 2992,
      "waving": 2993,
      "anderes": 2994,
      "schauk": 2995,
      "kinderwagen": 2996,
      "cloth": 2997,
      "gebäuden": 2998,
      "älteren": 2999,
      "bald": 3000,
      "kajak": 3001,
      "rolling": 3002,
      "maske": 3003,
      "linie": 3004,
      "tromm": 3005,
      "kreis": 3006,
      "square": 3007,
      "attempting": 3008,
      "chinese": 3009,
      "blowing": 3010,
      "gemeinsam": 3011,
      "mirror": 3012,
      "christmas": 3013,
      "fur": 3014,
      "kunden": 3015,
      "prü": 3016,
      "wü": 3017,
      "wrap": 3018,
      "ining": 3019,
      "sting": 3020,
      "stoff": 3021,
      "schatten": 3022,
      "robe": 3023,
      "orche": 3024,
      "cking": 3025,
      "lab": 3026,
      "els": 3027,
      "ese": 3028,
      "blas": 3029,
      "sea": 3030,
      "makes": 3031,
      "otor": 3032,
      "träger": 3033,
      "overlooking": 3034,
      "clou": 3035,
      "baustelle": 3036,
      "pinkfarbenen": 3037,
      "führung": 3038,
      "straßenrand": 3039,
      "straßenecke": 3040,
      "lächelnd": 3041,
      "putzt": 3042,
      "enjoy": 3043,
      "course": 3044,
      "grünes": 3045,
      "offenen": 3046,
      "wendet": 3047,
      "balanc": 3048,
      "jugendlicher": 3049,
      "tätow": 3050,
      "kreuz": 3051,
      "geländemotor": 3052,
      "gut": 3053,
      "lung": 3054,
      "tte": 3055,
      "teln": 3056,
      "wär": 3057,
      "“.": 3058,
      "ary": 3059,
      "steinen": 3060,
      "reiter": 3061,
      "ata": 3062,
      "tool": 3063,
      "spen": 3064,
      "dieser": 3065,
      "richter": 3066,
      "icol": 3067,
      "faces": 3068,
      "advert": 3069,
      "tig": 3070,
      "hafen": 3071,
      "celebr": 3072,
      "halle": 3073,
      "says": 3074,
      "steigen": 3075,
      "schütt": 3076,
      "räder": 3077,
      "stellung": 3078,
      "schoß": 3079,
      "paddel": 3080,
      "schulter": 3081,
      "ugging": 3082,
      "orangefarbener": 3083,
      "tourist": 3084,
      "officer": 3085,
      "spritzt": 3086,
      "bubbles": 3087,
      "electric": 3088,
      "olymp": 3089,
      "umarmt": 3090,
      "multicol": 3091,
      "bein": 3092,
      "glie": 3093,
      "ganz": 3094,
      "rein": 3095,
      "cho": 3096,
      "stap": 3097,
      "start": 3098,
      "lete": 3099,
      "leans": 3100,
      "leash": 3101,
      "res": 3102,
      "rech": 3103,
      "bot": 3104,
      "beam": 3105,
      "bekleidung": 3106,
      "loch": 3107,
      "verkäufer": 3108,
      "podium": 3109,
      "backstein": 3110,
      "contain": 3111,
      "fixing": 3112,
      "collar": 3113,
      "koch": 3114,
      "grasbewachsen": 3115,
      "tennisspieler": 3116,
      "schlafen": 3117,
      "festival": 3118,
      "giant": 3119,
      "schirmen": 3120,
      "brightly": 3121,
      "pitcher": 3122,
      "balloons": 3123,
      "ulptur": 3124,
      "krawatte": 3125,
      "gepflaster": 3126,
      "hoodie": 3127,
      "dunkelhäutiger": 3128,
      "schreibtisch": 3129,
      "bmx": 3130,
      "lines": 3131,
      "pt": 3132,
      "pin": 3133,
      "rö": 3134,
      "san": 3135,
      "schwe": 3136,
      "schlange": 3137,
      "alone": 3138,
      "aufge": 3139,
      "mitglie": 3140,
      "irgend": 3141,
      "seat": 3142,
      "verkaufen": 3143,
      "ics": 3144,
      "ward": 3145,
      "ierte": 3146,
      "moto": 3147,
      "sprin": 3148,
      "helping": 3149,
      "ages": 3150,
      "llas": 3151,
      "sandalen": 3152,
      "fahrradfahrer": 3153,
      "schnau": 3154,
      "leather": 3155,
      "hellhäut": 3156,
      "teenage": 3157,
      "gelände": 3158,
      "glück": 3159,
      "umbrellas": 3160,
      "golden": 3161,
      "prepare": 3162,
      "brunette": 3163,
      "foreground": 3164,
      "scope": 3165,
      "repariert": 3166,
      "wurf": 3167,
      "vordergrund": 3168,
      "bän": 3169,
      "ners": 3170,
      "sachen": 3171,
      "vice": 3172,
      "wild": 3173,
      "leep": 3174,
      "reiten": 3175,
      "repair": 3176,
      "schä": 3177,
      "asleep": 3178,
      "amp": 3179,
      "log": 3180,
      "meat": 3181,
      "fts": 3182,
      "how": 3183,
      "poster": 3184,
      "fahrrädern": 3185,
      "lies": 3186,
      "prote": 3187,
      "quar": 3188,
      "vollen": 3189,
      "headphones": 3190,
      "dancers": 3191,
      "jogging": 3192,
      "stadium": 3193,
      "gegeneinander": 3194,
      "footballspieler": 3195,
      "schieds": 3196,
      "setzt": 3197,
      "kurzer": 3198,
      "statt": 3199,
      "athlet": 3200,
      "fleisch": 3201,
      "gekleidetes": 3202,
      "legs": 3203,
      "füllten": 3204,
      "einkaufswagen": 3205,
      "daugh": 3206,
      "gestellt": 3207,
      "schüssel": 3208,
      "sculpture": 3209,
      "particip": 3210,
      "motocross": 3211,
      "bie": 3212,
      "ddle": 3213,
      "dish": 3214,
      "fé": 3215,
      "fliegen": 3216,
      "erde": 3217,
      "ingen": 3218,
      "deon": 3219,
      "blü": 3220,
      "bew": 3221,
      "lossen": 3222,
      "weit": 3223,
      "wears": 3224,
      "grocer": 3225,
      "klippe": 3226,
      "hood": 3227,
      "tiert": 3228,
      "trash": 3229,
      "move": 3230,
      "angezogen": 3231,
      "dread": 3232,
      "worfen": 3233,
      "perfor": 3234,
      "ffic": 3235,
      "sandals": 3236,
      "stuff": 3237,
      "office": 3238,
      "doorway": 3239,
      "komp": 3240,
      "asiatisches": 3241,
      "booth": 3242,
      "pferden": 3243,
      "café": 3244,
      "bedeckt": 3245,
      "falling": 3246,
      "lächelnde": 3247,
      "passing": 3248,
      "toys": 3249,
      "swings": 3250,
      "musical": 3251,
      "skiing": 3252,
      "drawing": 3253,
      "jemandem": 3254,
      "photographer": 3255,
      "burg": 3256,
      "officers": 3257,
      "cheerleader": 3258,
      "super": 3259,
      "lastwagen": 3260,
      "balanciert": 3261,
      "schiedsrichter": 3262,
      "ia": 3263,
      "jong": 3264,
      "nung": 3265,
      "sern": 3266,
      "vö": 3267,
      "winkt": 3268,
      "church": 3269,
      "mance": 3270,
      "schl": 3271,
      "schil": 3272,
      "aufnah": 3273,
      "ely": 3274,
      "spei": 3275,
      "neon": 3276,
      "rier": 3277,
      "tex": 3278,
      "teach": 3279,
      "fabri": 3280,
      "tax": 3281,
      "most": 3282,
      "posit": 3283,
      "hinder": 3284,
      "singer": 3285,
      "felsw": 3286,
      "marsch": 3287,
      "must": 3288,
      "held": 3289,
      "büro": 3290,
      "illen": 3291,
      "males": 3292,
      "bandan": 3293,
      "heads": 3294,
      "küsst": 3295,
      "akkor": 3296,
      "schlaf": 3297,
      "dirty": 3298,
      "laub": 3299,
      "rollers": 3300,
      "accord": 3301,
      "stellen": 3302,
      "badehose": 3303,
      "kanu": 3304,
      "höhe": 3305,
      "hiking": 3306,
      "barefoot": 3307,
      "schaufel": 3308,
      "fällt": 3309,
      "mobiltelefon": 3310,
      "chain": 3311,
      "canoe": 3312,
      "weibliche": 3313,
      "multicolored": 3314,
      "performance": 3315,
      "aufnahme": 3316,
      "accordion": 3317,
      "bäl": 3318,
      "för": 3319,
      "sum": 3320,
      "inclu": 3321,
      "anne": 3322,
      "rec": 3323,
      "ete": 3324,
      "frisch": 3325,
      "blatt": 3326,
      "shallow": 3327,
      "bewe": 3328,
      "becher": 3329,
      "ama": 3330,
      "locks": 3331,
      "ached": 3332,
      "heben": 3333,
      "fair": 3334,
      "demon": 3335,
      "here": 3336,
      "magaz": 3337,
      "traffic": 3338,
      "bücher": 3339,
      "wegs": 3340,
      "stadion": 3341,
      "horn": 3342,
      "aded": 3343,
      "hellbrauner": 3344,
      "surfbrett": 3345,
      "even": 3346,
      "picking": 3347,
      "orangefarbenem": 3348,
      "wettkampf": 3349,
      "wäsche": 3350,
      "throws": 3351,
      "reaching": 3352,
      "halsband": 3353,
      "profession": 3354,
      "klassenzimmer": 3355,
      "kapuzen": 3356,
      "felswand": 3357,
      "akkordeon": 3358,
      "beinen": 3359,
      "cont": 3360,
      "fting": 3361,
      "gan": 3362,
      "pft": 3363,
      "puck": 3364,
      "prä": 3365,
      "wich": 3366,
      "steine": 3367,
      "stau": 3368,
      "auss": 3369,
      "schaufen": 3370,
      "deep": 3371,
      "laund": 3372,
      "sper": 3373,
      "tepp": 3374,
      "heits": 3375,
      "heraus": 3376,
      "straw": 3377,
      "handstand": 3378,
      "formal": 3379,
      "guard": 3380,
      "davor": 3381,
      "clean": 3382,
      "oberteilen": 3383,
      "shoe": 3384,
      "shoo": 3385,
      "zeigen": 3386,
      "küssen": 3387,
      "zahl": 3388,
      "gesichts": 3389,
      "ruh": 3390,
      "tanktop": 3391,
      "kann": 3392,
      "belebte": 3393,
      "hilfe": 3394,
      "below": 3395,
      "salon": 3396,
      "digging": 3397,
      "figur": 3398,
      "overalls": 3399,
      "members": 3400,
      "relaxing": 3401,
      "bäume": 3402,
      "unbefestigten": 3403,
      "daughter": 3404,
      "dol": 3405,
      "fant": 3406,
      "hugging": 3407,
      "if": 3408,
      "ktor": 3409,
      "lon": 3410,
      "ming": 3411,
      "pfo": 3412,
      "seines": 3413,
      "tation": 3414,
      "ähn": 3415,
      "ones": 3416,
      "redet": 3417,
      "atop": 3418,
      "eig": 3419,
      "seem": 3420,
      "upside": 3421,
      "ricket": 3422,
      "tren": 3423,
      "hunden": 3424,
      "moving": 3425,
      "keiten": 3426,
      "feren": 3427,
      "formation": 3428,
      "ischt": 3429,
      "durchs": 3430,
      "arbeits": 3431,
      "gucken": 3432,
      "suspen": 3433,
      "stür": 3434,
      "steigt": 3435,
      "fußballspiel": 3436,
      "schnur": 3437,
      "schaften": 3438,
      "eingang": 3439,
      "gives": 3440,
      "passes": 3441,
      "microscope": 3442,
      "spaß": 3443,
      "gleitet": 3444,
      "hauses": 3445,
      "catching": 3446,
      "catches": 3447,
      "direction": 3448,
      "feier": 3449,
      "leuchtend": 3450,
      "seifenblasen": 3451,
      "kaffee": 3452,
      "stirn": 3453,
      "aussieht": 3454,
      "bill": 3455,
      "cul": 3456,
      "figh": 3457,
      "gate": 3458,
      "hur": 3459,
      "hug": 3460,
      "jugg": 3461,
      "mor": 3462,
      "nap": 3463,
      "trock": 3464,
      "tasse": 3465,
      "teich": 3466,
      "inten": 3467,
      "ants": 3468,
      "stor": 3469,
      "reg": 3470,
      "ged": 3471,
      "gepark": 3472,
      "gesä": 3473,
      "anda": 3474,
      "schach": 3475,
      "offer": 3476,
      "frü": 3477,
      "bly": 3478,
      "pede": 3479,
      "bekleide": 3480,
      "seum": 3481,
      "lots": 3482,
      "neu": 3483,
      "holt": 3484,
      "paved": 3485,
      "appro": 3486,
      "museum": 3487,
      "dient": 3488,
      "resting": 3489,
      "asiatisch": 3490,
      "spee": 3491,
      "bildschirm": 3492,
      "mikroskop": 3493,
      "shows": 3494,
      "sleeps": 3495,
      "follow": 3496,
      "brünet": 3497,
      "kugel": 3498,
      "student": 3499,
      "verschiedenen": 3500,
      "makeup": 3501,
      "leaping": 3502,
      "flies": 3503,
      "kranken": 3504,
      "sweeping": 3505,
      "schnauze": 3506,
      "dreadlocks": 3507,
      "cold": 3508,
      "kal": 3509,
      "kten": 3510,
      "lone": 3511,
      "piz": 3512,
      "slo": 3513,
      "zten": 3514,
      "äck": 3515,
      "unch": 3516,
      "schr": 3517,
      "scher": 3518,
      "these": 3519,
      "aufger": 3520,
      "elf": 3521,
      "tochter": 3522,
      "beweg": 3523,
      "grim": 3524,
      "teeth": 3525,
      "step": 3526,
      "wards": 3527,
      "ited": 3528,
      "tage": 3529,
      "tigen": 3530,
      "tron": 3531,
      "skin": 3532,
      "skulptur": 3533,
      "ister": 3534,
      "string": 3535,
      "stehende": 3536,
      "desert": 3537,
      "sandwich": 3538,
      "stücke": 3539,
      "kopft": 3540,
      "geschlossen": 3541,
      "namen": 3542,
      "books": 3543,
      "kai": 3544,
      "coats": 3545,
      "passen": 3546,
      "ringen": 3547,
      "instrumente": 3548,
      "schultern": 3549,
      "rennstrecke": 3550,
      "lilafarbenen": 3551,
      "schöne": 3552,
      "männlicher": 3553,
      "conversing": 3554,
      "pond": 3555,
      "scaff": 3556,
      "farbenfrohen": 3557,
      "kayak": 3558,
      "circle": 3559,
      "individuals": 3560,
      "köpfiger": 3561,
      "splashing": 3562,
      "trunks": 3563,
      "grasbewachsenen": 3564,
      "gepflasterten": 3565,
      "position": 3566,
      "hindernis": 3567,
      "pedestri": 3568,
      "center": 3569,
      "eat": 3570,
      "ffe": 3571,
      "nie": 3572,
      "nival": 3573,
      "ou": 3574,
      "wine": 3575,
      "üben": 3576,
      "inspe": 3577,
      "einzel": 3578,
      "chin": 3579,
      "stack": 3580,
      "rett": 3581,
      "geschen": 3582,
      "geige": 3583,
      "gezogen": 3584,
      "ckten": 3585,
      "racket": 3586,
      "bemalt": 3587,
      "neath": 3588,
      "wea": 3589,
      "umzug": 3590,
      "teles": 3591,
      "spielfeld": 3592,
      "cope": 3593,
      "hou": 3594,
      "stream": 3595,
      "brillen": 3596,
      "mahl": 3597,
      "carnival": 3598,
      "snack": 3599,
      "zene": 3600,
      "closed": 3601,
      "fully": 3602,
      "kocht": 3603,
      "händler": 3604,
      "küste": 3605,
      "underneath": 3606,
      "balcon": 3607,
      "kauft": 3608,
      "flaggen": 3609,
      "sleeve": 3610,
      "eye": 3611,
      "meeres": 3612,
      "plants": 3613,
      "objekt": 3614,
      "instrumenten": 3615,
      "silhou": 3616,
      "bullen": 3617,
      "points": 3618,
      "salto": 3619,
      "dinner": 3620,
      "katze": 3621,
      "stroh": 3622,
      "freunde": 3623,
      "wrestling": 3624,
      "abend": 3625,
      "spray": 3626,
      "violetten": 3627,
      "kirche": 3628,
      "sicherheits": 3629,
      "heavy": 3630,
      "customers": 3631,
      "telescope": 3632,
      "\".": 3633,
      "cted": 3634,
      "dor": 3635,
      "dling": 3636,
      "gasse": 3637,
      "kitt": 3638,
      "ness": 3639,
      "pop": 3640,
      "wür": 3641,
      "streifen": 3642,
      "without": 3643,
      "bemal": 3644,
      "bedient": 3645,
      "sees": 3646,
      "seiten": 3647,
      "opposing": 3648,
      "local": 3649,
      "umarmen": 3650,
      "trum": 3651,
      "gruppen": 3652,
      "unterwegs": 3653,
      "farm": 3654,
      "parkbank": 3655,
      "flops": 3656,
      "dances": 3657,
      "gegenstän": 3658,
      "karren": 3659,
      "grauer": 3660,
      "fresh": 3661,
      "freunden": 3662,
      "themsel": 3663,
      "exc": 3664,
      "hellen": 3665,
      "sportler": 3666,
      "cane": 3667,
      "self": 3668,
      "partment": 3669,
      "curly": 3670,
      "aussehende": 3671,
      "füllt": 3672,
      "project": 3673,
      "cheerleaders": 3674,
      "shoulders": 3675,
      "hiker": 3676,
      "streich": 3677,
      "gegnerischen": 3678,
      "pipe": 3679,
      "peace": 3680,
      "schaukelt": 3681,
      "wärts": 3682,
      "including": 3683,
      "demonstr": 3684,
      "schaufenster": 3685,
      "gesäum": 3686,
      "themselves": 3687,
      "barbe": 3688,
      "gas": 3689,
      "iden": 3690,
      "kil": 3691,
      "lunch": 3692,
      "mural": 3693,
      "oon": 3694,
      "ohr": 3695,
      "ods": 3696,
      "pian": 3697,
      "sse": 3698,
      "teller": 3699,
      "öpfen": 3700,
      "infant": 3701,
      "auch": 3702,
      "tho": 3703,
      "reit": 3704,
      "gewand": 3705,
      "attra": 3706,
      "oren": 3707,
      "theke": 3708,
      "raft": 3709,
      "mannschaften": 3710,
      "spot": 3711,
      "weise": 3712,
      "behäl": 3713,
      "losen": 3714,
      "ballerin": 3715,
      "live": 3716,
      "fahnen": 3717,
      "taken": 3718,
      "tieren": 3719,
      "oned": 3720,
      "moped": 3721,
      "pot": 3722,
      "skis": 3723,
      "bringt": 3724,
      "langem": 3725,
      "sprü": 3726,
      "jean": 3727,
      "wassers": 3728,
      "stehenden": 3729,
      "runners": 3730,
      "springbrunnen": 3731,
      "damit": 3732,
      "sieben": 3733,
      "fly": 3734,
      "crosswalk": 3735,
      "compan": 3736,
      "pulled": 3737,
      "richtet": 3738,
      "schwimmbrille": 3739,
      "balkon": 3740,
      "cast": 3741,
      "wooded": 3742,
      "sheet": 3743,
      "driver": 3744,
      "opening": 3745,
      "schutzhelmen": 3746,
      "jahr": 3747,
      "schneiden": 3748,
      "bilder": 3749,
      "picknick": 3750,
      "crying": 3751,
      "touristen": 3752,
      "wettbe": 3753,
      "matching": 3754,
      "produce": 3755,
      "begin": 3756,
      "button": 3757,
      "trampolin": 3758,
      "trampoline": 3759,
      "beleuchteten": 3760,
      "farbigen": 3761,
      "kopfhörer": 3762,
      "entspannt": 3763,
      "teppich": 3764,
      "duck": 3765,
      "ea": 3766,
      "fit": 3767,
      "gon": 3768,
      "glä": 3769,
      "häu": 3770,
      "kol": 3771,
      "mei": 3772,
      "own": 3773,
      "wil": 3774,
      "inen": 3775,
      "infl": 3776,
      "ered": 3777,
      "leucht": 3778,
      "gemä": 3779,
      "schmu": 3780,
      "schiff": 3781,
      "theater": 3782,
      "dekor": 3783,
      "ird": 3784,
      "derby": 3785,
      "spin": 3786,
      "ship": 3787,
      "sewing": 3788,
      "grin": 3789,
      "berge": 3790,
      "sted": 3791,
      "vergn": 3792,
      "verwendet": 3793,
      "veranda": 3794,
      "lift": 3795,
      "mob": 3796,
      "hinab": 3797,
      "entfer": 3798,
      "ellen": 3799,
      "ameras": 3800,
      "farbe": 3801,
      "zentrum": 3802,
      "topf": 3803,
      "surface": 3804,
      "näher": 3805,
      "picnic": 3806,
      "samm": 3807,
      "hüpft": 3808,
      "feldweg": 3809,
      "performer": 3810,
      "karten": 3811,
      "schwimmer": 3812,
      "kahl": 3813,
      "turner": 3814,
      "ized": 3815,
      "covering": 3816,
      "athlete": 3817,
      "firefigh": 3818,
      "nose": 3819,
      "matte": 3820,
      "teenagers": 3821,
      "knee": 3822,
      "attempts": 3823,
      "skiern": 3824,
      "bicyclists": 3825,
      "zeugen": 3826,
      "college": 3827,
      "stuffed": 3828,
      "jongliert": 3829,
      "taxi": 3830,
      "london": 3831,
      "behälter": 3832,
      "schmuck": 3833,
      "12": 3834,
      "bass": 3835,
      "ee": 3836,
      "hle": 3837,
      "hre": 3838,
      "kau": 3839,
      "lim": 3840,
      "rasse": 3841,
      "sau": 3842,
      "tut": 3843,
      "tong": 3844,
      "entr": 3845,
      "arch": 3846,
      "third": 3847,
      "leicht": 3848,
      "ief": 3849,
      "eisho": 3850,
      "auftritt": 3851,
      "lays": 3852,
      "irr": 3853,
      "bever": 3854,
      "urt": 3855,
      "tech": 3856,
      "ica": 3857,
      "warm": 3858,
      "hotel": 3859,
      "ierter": 3860,
      "oney": 3861,
      "moment": 3862,
      "apple": 3863,
      "eilen": 3864,
      "graben": 3865,
      "help": 3866,
      "suchen": 3867,
      "tub": 3868,
      "sandy": 3869,
      "bauen": 3870,
      "barfuß": 3871,
      "geschn": 3872,
      "goes": 3873,
      "dancer": 3874,
      "poli": 3875,
      "pull": 3876,
      "schießt": 3877,
      "himself": 3878,
      "ustic": 3879,
      "corn": 3880,
      "lächelnder": 3881,
      "ruht": 3882,
      "grillt": 3883,
      "maten": 3884,
      "elek": 3885,
      "motorcyclist": 3886,
      "boxes": 3887,
      "plant": 3888,
      "blouse": 3889,
      "kissen": 3890,
      "pushes": 3891,
      "hören": 3892,
      "dunkler": 3893,
      "fotografieren": 3894,
      "getränke": 3895,
      "mix": 3896,
      "bläst": 3897,
      "chases": 3898,
      "projekt": 3899,
      "multi": 3900,
      "reparieren": 3901,
      "links": 3902,
      "hikers": 3903,
      "zeichnet": 3904,
      "style": 3905,
      "rollerblades": 3906,
      "rechts": 3907,
      "botto": 3908,
      "slope": 3909,
      "pedestrians": 3910,
      "balcony": 3911,
      "eishockey": 3912,
      "20": 3913,
      "bit": 3914,
      "care": 3915,
      "fte": 3916,
      "free": 3917,
      "gum": 3918,
      "jam": 3919,
      "nes": 3920,
      "nase": 3921,
      "sü": 3922,
      "vil": 3923,
      "äch": 3924,
      "“-": 3925,
      "itz": 3926,
      "stab": 3927,
      "geöffnet": 3928,
      "isen": 3929,
      "device": 3930,
      "lamp": 3931,
      "bekommt": 3932,
      "segel": 3933,
      "section": 3934,
      "seven": 3935,
      "bent": 3936,
      "plakat": 3937,
      "steckt": 3938,
      "verfolgt": 3939,
      "mehr": 3940,
      "hockt": 3941,
      "handtasche": 3942,
      "igkeiten": 3943,
      "waterfall": 3944,
      "sitzende": 3945,
      "dry": 3946,
      "braunhaarige": 3947,
      "asiate": 3948,
      "clear": 3949,
      "baren": 3950,
      "tische": 3951,
      "banner": 3952,
      "essens": 3953,
      "type": 3954,
      "pulls": 3955,
      "finish": 3956,
      "balken": 3957,
      "hellblauen": 3958,
      "garage": 3959,
      "puts": 3960,
      "cowboyhut": 3961,
      "staircase": 3962,
      "höl": 3963,
      "amerikanische": 3964,
      "tief": 3965,
      "aussehender": 3966,
      "wandert": 3967,
      "speaks": 3968,
      "dunkelhäutige": 3969,
      "goalie": 3970,
      "werbung": 3971,
      "berührt": 3972,
      "militär": 3973,
      "wüste": 3974,
      "advertise": 3975,
      "schüttelt": 3976,
      "förm": 3977,
      "sperr": 3978,
      "shooting": 3979,
      "kopftuch": 3980,
      "geschlossenen": 3981,
      "mahlzeit": 3982,
      "piano": 3983,
      "wettbewerb": 3984,
      "polizei": 3985,
      "aks": 3986,
      "action": 3987,
      "bach": 3988,
      "fash": 3989,
      "hack": 3990,
      "kab": 3991,
      "nice": 3992,
      "trei": 3993,
      "ual": 3994,
      "viert": 3995,
      "ät": 3996,
      "erd": 3997,
      "ital": 3998,
      "lead": 3999,
      "gelegt": 4000,
      "atting": 4001,
      "issen": 4002,
      "deut": 4003,
      "lager": 4004,
      "towel": 4005,
      "besch": 4006,
      "terrasse": 4007,
      "amü": 4008,
      "lock": 4009,
      "cool": 4010,
      "coach": 4011,
      "vorüber": 4012,
      "hoben": 4013,
      "tight": 4014,
      "mound": 4015,
      "model": 4016,
      "mänteln": 4017,
      "überfüllten": 4018,
      "bringen": 4019,
      "personengruppe": 4020,
      "travel": 4021,
      "brot": 4022,
      "marching": 4023,
      "teilen": 4024,
      "sale": 4025,
      "emon": 4026,
      "igem": 4027,
      "stool": 4028,
      "skateboards": 4029,
      "comple": 4030,
      "puddle": 4031,
      "kart": 4032,
      "boats": 4033,
      "exper": 4034,
      "länd": 4035,
      "wetsuit": 4036,
      "drives": 4037,
      "enjoys": 4038,
      "draht": 4039,
      "hockeyspieler": 4040,
      "shaking": 4041,
      "blocks": 4042,
      "paddle": 4043,
      "swims": 4044,
      "pony": 4045,
      "gentlemen": 4046,
      "gepäck": 4047,
      "linken": 4048,
      "ausgestre": 4049,
      "zähne": 4050,
      "scape": 4051,
      "native": 4052,
      "palm": 4053,
      "saxophone": 4054,
      "geländemotorrad": 4055,
      "reinigt": 4056,
      "grocery": 4057,
      "evening": 4058,
      "pfosten": 4059,
      "approach": 4060,
      "cel": 4061,
      "cue": 4062,
      "fischer": 4063,
      "koffer": 4064,
      "lers": 4065,
      "mc": 4066,
      "chal": 4067,
      "stof": 4068,
      "ledge": 4069,
      "robes": 4070,
      "uts": 4071,
      "grö": 4072,
      "umn": 4073,
      "umher": 4074,
      "riert": 4075,
      "tee": 4076,
      "acht": 4077,
      "groom": 4078,
      "steep": 4079,
      "headed": 4080,
      "ligen": 4081,
      "reign": 4082,
      "foreign": 4083,
      "iertem": 4084,
      "haw": 4085,
      "moves": 4086,
      "sses": 4087,
      "pouring": 4088,
      "fahrräder": 4089,
      "bath": 4090,
      "zeits": 4091,
      "vement": 4092,
      "tracks": 4093,
      "wasserfall": 4094,
      "felsigen": 4095,
      "farbene": 4096,
      "half": 4097,
      "flor": 4098,
      "pinkfarbenem": 4099,
      "werfer": 4100,
      "luftballon": 4101,
      "hochzeit": 4102,
      "hochzeits": 4103,
      "geschirr": 4104,
      "hüb": 4105,
      "vorbeigehen": 4106,
      "küchen": 4107,
      "deckt": 4108,
      "asiatin": 4109,
      "asiaten": 4110,
      "schießen": 4111,
      "fallschirm": 4112,
      "knie": 4113,
      "teleskop": 4114,
      "garb": 4115,
      "kerl": 4116,
      "hangs": 4117,
      "sheep": 4118,
      "konstru": 4119,
      "shaving": 4120,
      "kicks": 4121,
      "vely": 4122,
      "kön": 4123,
      "curb": 4124,
      "birds": 4125,
      "fingers": 4126,
      "traditioneller": 4127,
      "porch": 4128,
      "diesem": 4129,
      "heim": 4130,
      "figure": 4131,
      "zeuge": 4132,
      "lederjacke": 4133,
      "wrapped": 4134,
      "cloudy": 4135,
      "protective": 4136,
      "laundry": 4137,
      "amüsi": 4138,
      "beln": 4139,
      "dust": 4140,
      "drop": 4141,
      "fis": 4142,
      "fir": 4143,
      "kut": 4144,
      "lugg": 4145,
      "mmen": 4146,
      "nei": 4147,
      "nassen": 4148,
      "sar": 4149,
      "szene": 4150,
      "wän": 4151,
      "will": 4152,
      "öh": 4153,
      "anle": 4154,
      "anger": 4155,
      "chte": 4156,
      "chase": 4157,
      "itter": 4158,
      "arrow": 4159,
      "stier": 4160,
      "geworfen": 4161,
      "atet": 4162,
      "aufblas": 4163,
      "mittag": 4164,
      "fröh": 4165,
      "siz": 4166,
      "oppo": 4167,
      "opren": 4168,
      "neopren": 4169,
      "dieses": 4170,
      "denim": 4171,
      "verlassen": 4172,
      "kegel": 4173,
      "poles": 4174,
      "untersucht": 4175,
      "bran": 4176,
      "brust": 4177,
      "füß": 4178,
      "fütze": 4179,
      "icken": 4180,
      "backyard": 4181,
      "airplane": 4182,
      "saw": 4183,
      "diers": 4184,
      "nachdem": 4185,
      "fix": 4186,
      "bread": 4187,
      "karte": 4188,
      "akes": 4189,
      "straßenkünstler": 4190,
      "hellbraunen": 4191,
      "rollstuhl": 4192,
      "colors": 4193,
      "ried": 4194,
      "winterkleidung": 4195,
      "kiss": 4196,
      "paddling": 4197,
      "studenten": 4198,
      "malen": 4199,
      "maler": 4200,
      "pitch": 4201,
      "werkzeug": 4202,
      "taucht": 4203,
      "taucher": 4204,
      "wäscht": 4205,
      "attached": 4206,
      "checking": 4207,
      "reaches": 4208,
      "entertain": 4209,
      "shoveling": 4210,
      "soldiers": 4211,
      "gießt": 4212,
      "rothaarige": 4213,
      "prüft": 4214,
      "atable": 4215,
      "container": 4216,
      "sprinkl": 4217,
      "hurdle": 4218,
      "chalk": 4219,
      "konstruktion": 4220,
      "luggage": 4221,
      "opposite": 4222,
      "cial": 4223,
      "dü": 4224,
      "fau": 4225,
      "flight": 4226,
      "hy": 4227,
      "kte": 4228,
      "nass": 4229,
      "range": 4230,
      "swor": 4231,
      "tlichen": 4232,
      "vig": 4233,
      "vac": 4234,
      "wanne": 4235,
      "zunge": 4236,
      "üb": 4237,
      "übt": 4238,
      "ents": 4239,
      "char": 4240,
      "stet": 4241,
      "stroll": 4242,
      "stift": 4243,
      "schot": 4244,
      "ising": 4245,
      "wol": 4246,
      "rack": 4247,
      "allein": 4248,
      "image": 4249,
      "oppon": 4250,
      "grä": 4251,
      "umge": 4252,
      "mex": 4253,
      "you": 4254,
      "beieinander": 4255,
      "sommer": 4256,
      "bathro": 4257,
      "pavement": 4258,
      "unterschie": 4259,
      "dreck": 4260,
      "umpf": 4261,
      "sitzender": 4262,
      "desc": 4263,
      "braunes": 4264,
      "cones": 4265,
      "sail": 4266,
      "emer": 4267,
      "tops": 4268,
      "barfüß": 4269,
      "darunter": 4270,
      "flage": 4271,
      "hänge": 4272,
      "skateboardfahrer": 4273,
      "pulli": 4274,
      "kurve": 4275,
      "baumstamm": 4276,
      "passanten": 4277,
      "bunte": 4278,
      "windows": 4279,
      "bikers": 4280,
      "kickt": 4281,
      "dunkelhaarige": 4282,
      "fenced": 4283,
      "stag": 4284,
      "bord": 4285,
      "kuh": 4286,
      "säcken": 4287,
      "wheelchair": 4288,
      "spazier": 4289,
      "camou": 4290,
      "soldier": 4291,
      "skirts": 4292,
      "railroad": 4293,
      "jerseys": 4294,
      "donal": 4295,
      "balancing": 4296,
      "wurde": 4297,
      "fußgängerüber": 4298,
      "pillow": 4299,
      "weitere": 4300,
      "frame": 4301,
      "tarn": 4302,
      "trommel": 4303,
      "tools": 4304,
      "paddelt": 4305,
      "stapel": 4306,
      "fabric": 4307,
      "rollersk": 4308,
      "recei": 4309,
      "präsen": 4310,
      "scaffol": 4311,
      "ballerina": 4312,
      "inflatable": 4313,
      "gemäl": 4314,
      "mobile": 4315,
      "tongue": 4316,
      "camouflage": 4317,
      "ais": 4318,
      "eats": 4319,
      "fass": 4320,
      "fill": 4321,
      "jet": 4322,
      "pas": 4323,
      "pel": 4324,
      "pig": 4325,
      "vic": 4326,
      "ws": 4327,
      "zin": 4328,
      "erkl": 4329,
      "ane": 4330,
      "chan": 4331,
      "une": 4332,
      "stil": 4333,
      "refer": 4334,
      "gezeigt": 4335,
      "gewehr": 4336,
      "scheinen": 4337,
      "mitarbeiter": 4338,
      "lacro": 4339,
      "escal": 4340,
      "bling": 4341,
      "pee": 4342,
      "shade": 4343,
      "grand": 4344,
      "riage": 4345,
      "richten": 4346,
      "riders": 4347,
      "ribb": 4348,
      "spiels": 4349,
      "bern": 4350,
      "come": 4351,
      "meet": 4352,
      "vorn": 4353,
      "living": 4354,
      "ids": 4355,
      "mode": 4356,
      "buying": 4357,
      "hinaus": 4358,
      "bräut": 4359,
      "igam": 4360,
      "fütter": 4361,
      "tractor": 4362,
      "hinterher": 4363,
      "married": 4364,
      "helfen": 4365,
      "schwen": 4366,
      "schwer": 4367,
      "hlt": 4368,
      "luftballons": 4369,
      "walls": 4370,
      "chern": 4371,
      "tyard": 4372,
      "speak": 4373,
      "balance": 4374,
      "training": 4375,
      "floating": 4376,
      "falls": 4377,
      "musician": 4378,
      "cowboys": 4379,
      "cook": 4380,
      "courtyard": 4381,
      "motorcycles": 4382,
      "laughs": 4383,
      "testelle": 4384,
      "swimsuit": 4385,
      "laptops": 4386,
      "angelt": 4387,
      "happily": 4388,
      "konzent": 4389,
      "vollführt": 4390,
      "transpor": 4391,
      "cyclists": 4392,
      "raised": 4393,
      "discuss": 4394,
      "rasiert": 4395,
      "santa": 4396,
      "blüm": 4397,
      "summer": 4398,
      "bewegt": 4399,
      "magazine": 4400,
      "professional": 4401,
      "juggling": 4402,
      "brünette": 4403,
      "pizza": 4404,
      "skinned": 4405,
      "rettung": 4406,
      "geschenk": 4407,
      "silhouette": 4408,
      "barbecue": 4409,
      "geschnitten": 4410,
      "bottom": 4411,
      "jamas": 4412,
      "floral": 4413,
      "können": 4414,
      "gräbt": 4415,
      "unterschied": 4416,
      "lacrosse": 4417,
      "bräutigam": 4418,
      "aco": 4419,
      "bam": 4420,
      "eith": 4421,
      "egg": 4422,
      "flan": 4423,
      "gür": 4424,
      "hner": 4425,
      "heir": 4426,
      "ife": 4427,
      "kisten": 4428,
      "mess": 4429,
      "nch": 4430,
      "pflaster": 4431,
      "pfütze": 4432,
      "runden": 4433,
      "säu": 4434,
      "tw": 4435,
      "tz": 4436,
      "unic": 4437,
      "lehrer": 4438,
      "letter": 4439,
      "rel": 4440,
      "schreit": 4441,
      "defen": 4442,
      "decken": 4443,
      "iron": 4444,
      "rac": 4445,
      "spon": 4446,
      "ments": 4447,
      "weight": 4448,
      "been": 4449,
      "bean": 4450,
      "doctor": 4451,
      "seit": 4452,
      "heit": 4453,
      "reide": 4454,
      "yoga": 4455,
      "adjust": 4456,
      "mom": 4457,
      "bucking": 4458,
      "socks": 4459,
      "paras": 4460,
      "wake": 4461,
      "bage": 4462,
      "pajamas": 4463,
      "handtuch": 4464,
      "eds": 4465,
      "carpet": 4466,
      "carriage": 4467,
      "ickelt": 4468,
      "backwards": 4469,
      "sitzenden": 4470,
      "tube": 4471,
      "abzu": 4472,
      "fischen": 4473,
      "banjo": 4474,
      "shown": 4475,
      "flaschen": 4476,
      "goods": 4477,
      "kochen": 4478,
      "scien": 4479,
      "john": 4480,
      "hütte": 4481,
      "platt": 4482,
      "schnitt": 4483,
      "restaurants": 4484,
      "akust": 4485,
      "ips": 4486,
      "besen": 4487,
      "float": 4488,
      "zahn": 4489,
      "garbage": 4490,
      "crew": 4491,
      "deln": 4492,
      "drachen": 4493,
      "boxer": 4494,
      "marketplace": 4495,
      "mmert": 4496,
      "appear": 4497,
      "riesi": 4498,
      "kante": 4499,
      "goldenen": 4500,
      "cheering": 4501,
      "turnhalle": 4502,
      "benutzen": 4503,
      "kehrt": 4504,
      "feiern": 4505,
      "begut": 4506,
      "closeup": 4507,
      "relax": 4508,
      "spitze": 4509,
      "tüte": 4510,
      "stretched": 4511,
      "touching": 4512,
      "tätowier": 4513,
      "hellhäutiger": 4514,
      "schäfer": 4515,
      "quarter": 4516,
      "texas": 4517,
      "mustach": 4518,
      "bandanna": 4519,
      "arbeitskleidung": 4520,
      "suspended": 4521,
      "schnurr": 4522,
      "excited": 4523,
      "multiple": 4524,
      "experi": 4525,
      "cello": 4526,
      "mcdonal": 4527,
      "fisher": 4528,
      "sized": 4529,
      "neoprenanzug": 4530,
      "scaffolding": 4531,
      "acoustic": 4532,
      "either": 4533,
      ".\"": 4534,
      "cricket": 4535,
      "dj": 4536,
      "ears": 4537,
      "fal": 4538,
      "got": 4539,
      "mop": 4540,
      "money": 4541,
      "ni": 4542,
      "pir": 4543,
      "pri": 4544,
      "pige": 4545,
      "ude": 4546,
      "wischt": 4547,
      "yl": 4548,
      "öhn": 4549,
      "invol": 4550,
      "anlage": 4551,
      "chop": 4552,
      "thum": 4553,
      "lehnen": 4554,
      "rechten": 4555,
      "gehalten": 4556,
      "rohr": 4557,
      "rout": 4558,
      "unde": 4559,
      "ature": 4560,
      "orn": 4561,
      "eltern": 4562,
      "spi": 4563,
      "boun": 4564,
      "peer": 4565,
      "beut": 4566,
      "alleine": 4567,
      "berges": 4568,
      "plaza": 4569,
      "heu": 4570,
      "heels": 4571,
      "klat": 4572,
      "hound": 4573,
      "hay": 4574,
      "skates": 4575,
      "parach": 4576,
      "german": 4577,
      "zement": 4578,
      "brand": 4579,
      "kinstru": 4580,
      "airport": 4581,
      "jungs": 4582,
      "chest": 4583,
      "broom": 4584,
      "mart": 4585,
      "ketten": 4586,
      "blondem": 4587,
      "flu": 4588,
      "baut": 4589,
      "obsta": 4590,
      "quad": 4591,
      "treffen": 4592,
      "stove": 4593,
      "geschm": 4594,
      "good": 4595,
      "musikinstru": 4596,
      "scu": 4597,
      "hür": 4598,
      "ations": 4599,
      "tennisschläger": 4600,
      "strip": 4601,
      "underwater": 4602,
      "ipes": 4603,
      "bahnsteig": 4604,
      "bahnhof": 4605,
      "climber": 4606,
      "paints": 4607,
      "serving": 4608,
      "exer": 4609,
      "landscape": 4610,
      "glei": 4611,
      "sleeved": 4612,
      "eleph": 4613,
      "acting": 4614,
      "selts": 4615,
      "jagen": 4616,
      "welding": 4617,
      "backpacks": 4618,
      "batter": 4619,
      "drummer": 4620,
      "camp": 4621,
      "mini": 4622,
      "patient": 4623,
      "flughafen": 4624,
      "dining": 4625,
      "chinesischen": 4626,
      "befestigt": 4627,
      "strom": 4628,
      "nahaufnahme": 4629,
      "hooded": 4630,
      "animals": 4631,
      "zäunten": 4632,
      "kneels": 4633,
      "weihnachtsbaum": 4634,
      "ärmellosen": 4635,
      "japanese": 4636,
      "haltung": 4637,
      "cauc": 4638,
      "caught": 4639,
      "candy": 4640,
      "verkleidet": 4641,
      "orchester": 4642,
      "kreuzung": 4643,
      "mitglieder": 4644,
      "glücklich": 4645,
      "speisen": 4646,
      "kapuzenpulli": 4647,
      "namens": 4648,
      "gesäumten": 4649,
      "jahrmarkt": 4650,
      "vergnü": 4651,
      "entfernt": 4652,
      "advertisement": 4653,
      "hawk": 4654,
      "gemälde": 4655,
      "escalator": 4656,
      "konzentriert": 4657,
      "plattform": 4658,
      "begutach": 4659,
      "obstacle": 4660,
      "aber": 4661,
      "cil": 4662,
      "cone": 4663,
      "cab": 4664,
      "gä": 4665,
      "hist": 4666,
      "ichtet": 4667,
      "kalten": 4668,
      "later": 4669,
      "oze": 4670,
      "yhound": 4671,
      "öte": 4672,
      "enth": 4673,
      "erie": 4674,
      "chor": 4675,
      "stones": 4676,
      "geblüm": 4677,
      "schweiß": 4678,
      "schien": 4679,
      "atur": 4680,
      "organ": 4681,
      "lagen": 4682,
      "eter": 4683,
      "bege": 4684,
      "amuse": 4685,
      "loc": 4686,
      "los": 4687,
      "griff": 4688,
      "web": 4689,
      "bending": 4690,
      "heart": 4691,
      "liqu": 4692,
      "reichen": 4693,
      "tafel": 4694,
      "indische": 4695,
      "youth": 4696,
      "herab": 4697,
      "trump": 4698,
      "power": 4699,
      "entgegen": 4700,
      "app": 4701,
      "thrown": 4702,
      "greyhound": 4703,
      "gravel": 4704,
      "drü": 4705,
      "mark": 4706,
      "muzz": 4707,
      "ffy": 4708,
      "skatepark": 4709,
      "dischen": 4710,
      "rests": 4711,
      "schneebedeck": 4712,
      "cling": 4713,
      "haircut": 4714,
      "mützen": 4715,
      "guitarist": 4716,
      "polka": 4717,
      "gestelle": 4718,
      "sets": 4719,
      "ussion": 4720,
      "stadtstraße": 4721,
      "turban": 4722,
      "aterial": 4723,
      "trainiert": 4724,
      "geschäftigen": 4725,
      "lächelndes": 4726,
      "rolltreppe": 4727,
      "grilling": 4728,
      "gewickelt": 4729,
      "drive": 4730,
      "ggy": 4731,
      "waldgebiet": 4732,
      "shaped": 4733,
      "shadow": 4734,
      "stark": 4735,
      "jemanden": 4736,
      "säge": 4737,
      "tromp": 4738,
      "rennfahrer": 4739,
      "amerikanischen": 4740,
      "soldat": 4741,
      "offenem": 4742,
      "craft": 4743,
      "vehicles": 4744,
      "checkered": 4745,
      "operating": 4746,
      "operation": 4747,
      "afrikanische": 4748,
      "weihnachtsmann": 4749,
      "brushing": 4750,
      "transport": 4751,
      "film": 4752,
      "individual": 4753,
      "ropes": 4754,
      "wohnzimmer": 4755,
      "neckla": 4756,
      "saxophon": 4757,
      "decorated": 4758,
      "print": 4759,
      "tails": 4760,
      "examining": 4761,
      "orchestra": 4762,
      "röcken": 4763,
      "athletic": 4764,
      "participating": 4765,
      "schildern": 4766,
      "teacher": 4767,
      "bällen": 4768,
      "seems": 4769,
      "trocken": 4770,
      "kittel": 4771,
      "gegenstände": 4772,
      "2012": 4773,
      "hölzer": 4774,
      "beschäft": 4775,
      "first": 4776,
      "anlegestelle": 4777,
      "referee": 4778,
      "quarterback": 4779,
      "beutel": 4780,
      "caucasian": 4781,
      "amusement": 4782,
      "trumpet": 4783,
      "apartment": 4784,
      "bber": 4785,
      "bör": 4786,
      "dump": 4787,
      "dün": 4788,
      "eur": 4789,
      "gs": 4790,
      "gassi": 4791,
      "ior": 4792,
      "kont": 4793,
      "lle": 4794,
      "mate": 4795,
      "pine": 4796,
      "pped": 4797,
      "pär": 4798,
      "ris": 4799,
      "sink": 4800,
      "song": 4801,
      "tö": 4802,
      "usi": 4803,
      "va": 4804,
      "ware": 4805,
      "wide": 4806,
      "ölk": 4807,
      "steilen": 4808,
      "only": 4809,
      "legg": 4810,
      "gestu": 4811,
      "gelehnt": 4812,
      "also": 4813,
      "altestelle": 4814,
      "rowing": 4815,
      "atv": 4816,
      "eight": 4817,
      "ord": 4818,
      "desi": 4819,
      "rast": 4820,
      "racer": 4821,
      "spü": 4822,
      "sharing": 4823,
      "ames": 4824,
      "oping": 4825,
      "neh": 4826,
      "cola": 4827,
      "medi": 4828,
      "hocke": 4829,
      "herbst": 4830,
      "pod": 4831,
      "possi": 4832,
      "wagon": 4833,
      "hinein": 4834,
      "brau": 4835,
      "lane": 4836,
      "map": 4837,
      "elling": 4838,
      "füßen": 4839,
      "traktor": 4840,
      "jewel": 4841,
      "stehend": 4842,
      "jungle": 4843,
      "lied": 4844,
      "snowboarding": 4845,
      "geboren": 4846,
      "things": 4847,
      "bauch": 4848,
      "ihres": 4849,
      "quet": 4850,
      "motorrädern": 4851,
      "freizeit": 4852,
      "ways": 4853,
      "geschä": 4854,
      "headscarf": 4855,
      "baseballkappe": 4856,
      "daneben": 4857,
      "gitarrist": 4858,
      "setzen": 4859,
      "horiz": 4860,
      "dune": 4861,
      "wandbild": 4862,
      "sonnenbrillen": 4863,
      "benches": 4864,
      "freil": 4865,
      "turning": 4866,
      "mountainbike": 4867,
      "cape": 4868,
      "knit": 4869,
      "knien": 4870,
      "passeng": 4871,
      "steinmauer": 4872,
      "ghbor": 4873,
      "firetruck": 4874,
      "kunststücke": 4875,
      "sticking": 4876,
      "boxing": 4877,
      "shaw": 4878,
      "compete": 4879,
      "feeding": 4880,
      "kiste": 4881,
      "birth": 4882,
      "monitor": 4883,
      "attempt": 4884,
      "türkis": 4885,
      "hitting": 4886,
      "practice": 4887,
      "kleider": 4888,
      "jugendliche": 4889,
      "klavier": 4890,
      "klapp": 4891,
      "harness": 4892,
      "schaufelt": 4893,
      "photographs": 4894,
      "vision": 4895,
      "wire": 4896,
      "hallway": 4897,
      "muddy": 4898,
      "joggen": 4899,
      "daumen": 4900,
      "ssig": 4901,
      "presentation": 4902,
      "bushaltestelle": 4903,
      "crouches": 4904,
      "silbernen": 4905,
      "weint": 4906,
      "trägerhemd": 4907,
      "tourists": 4908,
      "bänken": 4909,
      "bewölk": 4910,
      "komplett": 4911,
      "control": 4912,
      "bewegung": 4913,
      "streichelt": 4914,
      "nähert": 4915,
      "kahlköpfiger": 4916,
      "firefighters": 4917,
      "neighbor": 4918,
      "opponent": 4919,
      "bathroom": 4920,
      "schäferhund": 4921,
      "scuba": 4922,
      "exerc": 4923,
      "hölzernen": 4924,
      "pärchen": 4925,
      "passengers": 4926,
      "ahead": 4927,
      "act": 4928,
      "bby": 4929,
      "ceil": 4930,
      "fä": 4931,
      "gla": 4932,
      "hten": 4933,
      "ible": 4934,
      "kul": 4935,
      "ld": 4936,
      "material": 4937,
      "oc": 4938,
      "ohren": 4939,
      "tzt": 4940,
      "teig": 4941,
      "uf": 4942,
      "usa": 4943,
      "üsch": 4944,
      "iny": 4945,
      "inery": 4946,
      "inlines": 4947,
      "itte": 4948,
      "unkt": 4949,
      "leit": 4950,
      "reli": 4951,
      "schmet": 4952,
      "rod": 4953,
      "order": 4954,
      "aufmer": 4955,
      "aufführung": 4956,
      "etrack": 4957,
      "loading": 4958,
      "umhang": 4959,
      "vorrichtung": 4960,
      "tile": 4961,
      "herd": 4962,
      "trau": 4963,
      "socken": 4964,
      "ausstellung": 4965,
      "handschuh": 4966,
      "groups": 4967,
      "menschengruppe": 4968,
      "dreir": 4969,
      "machinery": 4970,
      "appl": 4971,
      "ängen": 4972,
      "jumpsuit": 4973,
      "boards": 4974,
      "torhü": 4975,
      "teilt": 4976,
      "langhaariger": 4977,
      "cleans": 4978,
      "digen": 4979,
      "dicht": 4980,
      "stud": 4981,
      "absperr": 4982,
      "bars": 4983,
      "navy": 4984,
      "guitars": 4985,
      "press": 4986,
      "automaten": 4987,
      "schub": 4988,
      "schule": 4989,
      "viewing": 4990,
      "kasten": 4991,
      "kletterer": 4992,
      "trainings": 4993,
      "leaf": 4994,
      "tags": 4995,
      "kurze": 4996,
      "passag": 4997,
      "kerzen": 4998,
      "space": 4999,
      "gewich": 5000,
      "feuert": 5001,
      "graffitis": 5002,
      "selbst": 5003,
      "sporting": 5004,
      "policeman": 5005,
      "camping": 5006,
      "rennwagen": 5007,
      "turns": 5008,
      "patio": 5009,
      "zuschauermenge": 5010,
      "getränken": 5011,
      "geräten": 5012,
      "fruits": 5013,
      "tattoos": 5014,
      "hoops": 5015,
      "heiß": 5016,
      "heißen": 5017,
      "puppe": 5018,
      "member": 5019,
      "einkaufszentrum": 5020,
      "mög": 5021,
      "ethnic": 5022,
      "joggt": 5023,
      "blättern": 5024,
      "schmutzigen": 5025,
      "jüngeren": 5026,
      "wunderschönen": 5027,
      "kopfhörern": 5028,
      "hugs": 5029,
      "geparkt": 5030,
      "speech": 5031,
      "aufgere": 5032,
      "china": 5033,
      "süß": 5034,
      "ausgestreckten": 5035,
      "wänden": 5036,
      "hydr": 5037,
      "sword": 5038,
      "racetrack": 5039,
      "mustache": 5040,
      "schnurrbart": 5041,
      "routine": 5042,
      "hürde": 5043,
      "leggings": 5044,
      "birthday": 5045,
      "aufmerks": 5046,
      "bund": 5047,
      "brennen": 5048,
      "butter": 5049,
      "cade": 5050,
      "dim": 5051,
      "fas": 5052,
      "gall": 5053,
      "hers": 5054,
      "hmaschine": 5055,
      "ioned": 5056,
      "lust": 5057,
      "mall": 5058,
      "non": 5059,
      "narrow": 5060,
      "pist": 5061,
      "pump": 5062,
      "val": 5063,
      "zte": 5064,
      "inner": 5065,
      "erchen": 5066,
      "itzt": 5067,
      "stol": 5068,
      "aud": 5069,
      "ausch": 5070,
      "leger": 5071,
      "rede": 5072,
      "rekla": 5073,
      "schlen": 5074,
      "rough": 5075,
      "dead": 5076,
      "aufs": 5077,
      "lampe": 5078,
      "rahmen": 5079,
      "ofen": 5080,
      "toile": 5081,
      "blume": 5082,
      "tents": 5083,
      "domin": 5084,
      "secur": 5085,
      "loy": 5086,
      "bene": 5087,
      "steu": 5088,
      "cock": 5089,
      "klasse": 5090,
      "warn": 5091,
      "hospit": 5092,
      "tige": 5093,
      "ford": 5094,
      "mädchens": 5095,
      "modern": 5096,
      "bud": 5097,
      "buy": 5098,
      "kee": 5099,
      "keep": 5100,
      "bron": 5101,
      "füße": 5102,
      "jeep": 5103,
      "great": 5104,
      "hinterhof": 5105,
      "drill": 5106,
      "brow": 5107,
      "boardwalk": 5108,
      "kette": 5109,
      "schwach": 5110,
      "sanddü": 5111,
      "älteres": 5112,
      "motorroller": 5113,
      "banan": 5114,
      "shoot": 5115,
      "ceremon": 5116,
      "nähmaschine": 5117,
      "headband": 5118,
      "baseballmütze": 5119,
      "baskets": 5120,
      "vorbeifährt": 5121,
      "army": 5122,
      "kür": 5123,
      "nail": 5124,
      "navig": 5125,
      "typen": 5126,
      "gitarren": 5127,
      "rosafarbenem": 5128,
      "ärm": 5129,
      "leaving": 5130,
      "exhi": 5131,
      "horseback": 5132,
      "bunt": 5133,
      "ruder": 5134,
      "rudert": 5135,
      "rubber": 5136,
      "friseur": 5137,
      "shepher": 5138,
      "gewän": 5139,
      "newly": 5140,
      "swimmer": 5141,
      "kunstwerk": 5142,
      "cess": 5143,
      "note": 5144,
      "hillside": 5145,
      "diskut": 5146,
      "boxen": 5147,
      "slides": 5148,
      "schutzbrille": 5149,
      "sells": 5150,
      "wheels": 5151,
      "maschinen": 5152,
      "smoke": 5153,
      "bowlingbahn": 5154,
      "intersection": 5155,
      "stopped": 5156,
      "clowns": 5157,
      "medical": 5158,
      "tattooed": 5159,
      "vendors": 5160,
      "städtische": 5161,
      "direkt": 5162,
      "petting": 5163,
      "electron": 5164,
      "flüssig": 5165,
      "geldbör": 5166,
      "pilot": 5167,
      "verkehrs": 5168,
      "violettem": 5169,
      "bushes": 5170,
      "stretching": 5171,
      "observe": 5172,
      "nickerchen": 5173,
      "crouching": 5174,
      "discussion": 5175,
      "synch": 5176,
      "militä": 5177,
      "fancy": 5178,
      "indoors": 5179,
      "ference": 5180,
      "neugeboren": 5181,
      "krankenhaus": 5182,
      "einzelner": 5183,
      "dorf": 5184,
      "eastern": 5185,
      "entrance": 5186,
      "beverage": 5187,
      "ribbon": 5188,
      "modell": 5189,
      "füttert": 5190,
      "experiment": 5191,
      "beschäftigt": 5192,
      "possibly": 5193,
      "neighborhood": 5194,
      "ceiling": 5195,
      "torhüter": 5196,
      "aufmerksam": 5197,
      "herself": 5198,
      "hospital": 5199,
      "10": 5200,
      "beine": 5201,
      "clap": 5202,
      "clay": 5203,
      "find": 5204,
      "gal": 5205,
      "harm": 5206,
      "hause": 5207,
      "jen": 5208,
      "kite": 5209,
      "kaut": 5210,
      "my": 5211,
      "pins": 5212,
      "pipes": 5213,
      "runter": 5214,
      "rute": 5215,
      "sla": 5216,
      "zigar": 5217,
      "ino": 5218,
      "anhat": 5219,
      "still": 5220,
      "stangen": 5221,
      "recht": 5222,
      "schlie": 5223,
      "aters": 5224,
      "mithilfe": 5225,
      "wohner": 5226,
      "deren": 5227,
      "elmo": 5228,
      "bearbeitet": 5229,
      "allen": 5230,
      "dot": 5231,
      "seats": 5232,
      "lose": 5233,
      "lounge": 5234,
      "verheir": 5235,
      "dinge": 5236,
      "cobble": 5237,
      "mechan": 5238,
      "lig": 5239,
      "factor": 5240,
      "reiche": 5241,
      "beißt": 5242,
      "outstretched": 5243,
      "hawa": 5244,
      "mohawk": 5245,
      "soon": 5246,
      "parcour": 5247,
      "fencing": 5248,
      "trag": 5249,
      "ika": 5250,
      "maroon": 5251,
      "cond": 5252,
      "consi": 5253,
      "condu": 5254,
      "conference": 5255,
      "lasso": 5256,
      "helps": 5257,
      "spielerin": 5258,
      "flausch": 5259,
      "bauern": 5260,
      "odd": 5261,
      "barri": 5262,
      "plüsch": 5263,
      "hüte": 5264,
      "ttery": 5265,
      "zeige": 5266,
      "booten": 5267,
      "kariertem": 5268,
      "strick": 5269,
      "findet": 5270,
      "dunkle": 5271,
      "schuss": 5272,
      "schwimmbad": 5273,
      "frem": 5274,
      "klettergerüst": 5275,
      "microphones": 5276,
      "steinigen": 5277,
      "computers": 5278,
      "kamel": 5279,
      "assem": 5280,
      "folding": 5281,
      "regenschirmen": 5282,
      "verkaufs": 5283,
      "rucksäcken": 5284,
      "seilen": 5285,
      "liegenden": 5286,
      "fotografen": 5287,
      "bowlingkugel": 5288,
      "point": 5289,
      "melon": 5290,
      "burger": 5291,
      "einkaufsta": 5292,
      "gewässers": 5293,
      "crafts": 5294,
      "mixing": 5295,
      "squatting": 5296,
      "angelrute": 5297,
      "lachend": 5298,
      "hotdog": 5299,
      "feuerwehrmänner": 5300,
      "bottles": 5301,
      "buckets": 5302,
      "engine": 5303,
      "funny": 5304,
      "wife": 5305,
      "puppy": 5306,
      "vertei": 5307,
      "uniformed": 5308,
      "natur": 5309,
      "schlagzeuger": 5310,
      "beleuchtung": 5311,
      "afrikanischer": 5312,
      "messer": 5313,
      "chefs": 5314,
      "cardboard": 5315,
      "rückwärts": 5316,
      "berühren": 5317,
      "celebrating": 5318,
      "choir": 5319,
      "dishes": 5320,
      "mostly": 5321,
      "marschiert": 5322,
      "schlafanzug": 5323,
      "bälle": 5324,
      "trennen": 5325,
      "strohhut": 5326,
      "häusern": 5327,
      "sammelt": 5328,
      "techn": 5329,
      "amüsieren": 5330,
      "aufblasbaren": 5331,
      "sprinkler": 5332,
      "rettungswe": 5333,
      "parasa": 5334,
      "ornate": 5335,
      "stripes": 5336,
      "histor": 5337,
      "geblümten": 5338,
      "trompete": 5339,
      "nehmer": 5340,
      "geschäften": 5341,
      "freiluft": 5342,
      "inlinesk": 5343,
      "religi": 5344,
      "shepherd": 5345,
      "synchron": 5346,
      "harmon": 5347,
      "factory": 5348,
      "hawai": 5349,
      "parcours": 5350,
      "aking": 5351,
      "bell": 5352,
      "bies": 5353,
      "dä": 5354,
      "dir": 5355,
      "dlers": 5356,
      "gue": 5357,
      "gap": 5358,
      "job": 5359,
      "kies": 5360,
      "krie": 5361,
      "ktive": 5362,
      "kameras": 5363,
      "lat": 5364,
      "nit": 5365,
      "name": 5366,
      "oween": 5367,
      "patch": 5368,
      "rat": 5369,
      "rink": 5370,
      "rally": 5371,
      "rural": 5372,
      "uum": 5373,
      "wissen": 5374,
      "insp": 5375,
      "intent": 5376,
      "anzu": 5377,
      "sters": 5378,
      "lei": 5379,
      "leot": 5380,
      "lego": 5381,
      "gespr": 5382,
      "schlitt": 5383,
      "ros": 5384,
      "undert": 5385,
      "ative": 5386,
      "eisen": 5387,
      "ished": 5388,
      "thek": 5389,
      "asp": 5390,
      "tower": 5391,
      "sive": 5392,
      "simil": 5393,
      "bestehende": 5394,
      "amid": 5395,
      "dough": 5396,
      "seas": 5397,
      "locken": 5398,
      "logo": 5399,
      "ared": 5400,
      "text": 5401,
      "spielkleidung": 5402,
      "verz": 5403,
      "wart": 5404,
      "libr": 5405,
      "lippen": 5406,
      "item": 5407,
      "fahne": 5408,
      "reicht": 5409,
      "indu": 5410,
      "tigt": 5411,
      "ticket": 5412,
      "tially": 5413,
      "trie": 5414,
      "iere": 5415,
      "blazer": 5416,
      "moun": 5417,
      "motion": 5418,
      "buff": 5419,
      "bluejeans": 5420,
      "fahrgeschäft": 5421,
      "ulen": 5422,
      "ular": 5423,
      "wahr": 5424,
      "waschen": 5425,
      "waffe": 5426,
      "gelt": 5427,
      "gelassen": 5428,
      "feder": 5429,
      "fegt": 5430,
      "brief": 5431,
      "strü": 5432,
      "carving": 5433,
      "fertig": 5434,
      "world": 5435,
      "appar": 5436,
      "chee": 5437,
      "gebil": 5438,
      "helme": 5439,
      "embra": 5440,
      "verse": 5441,
      "schwanz": 5442,
      "sandstrand": 5443,
      "stufe": 5444,
      "wirbelt": 5445,
      "flachen": 5446,
      "näch": 5447,
      "pical": 5448,
      "doors": 5449,
      "kopfüber": 5450,
      "merch": 5451,
      "platte": 5452,
      "ktur": 5453,
      "gegenseit": 5454,
      "schnü": 5455,
      "karuss": 5456,
      "ippt": 5457,
      "graue": 5458,
      "straßenhändler": 5459,
      "nets": 5460,
      "trainer": 5461,
      "leading": 5462,
      "kurs": 5463,
      "bowls": 5464,
      "zeitschrift": 5465,
      "sportveranstaltung": 5466,
      "storefront": 5467,
      "coloring": 5468,
      "kunft": 5469,
      "packt": 5470,
      "frisur": 5471,
      "grillen": 5472,
      "wettrennen": 5473,
      "gleisen": 5474,
      "noten": 5475,
      "konferen": 5476,
      "glatz": 5477,
      "körben": 5478,
      "dunkelblauen": 5479,
      "activ": 5480,
      "rings": 5481,
      "stares": 5482,
      "dudel": 5483,
      "born": 5484,
      "pieces": 5485,
      "jubeln": 5486,
      "schreiben": 5487,
      "wheelie": 5488,
      "calf": 5489,
      "comfor": 5490,
      "smokes": 5491,
      "rennauto": 5492,
      "crash": 5493,
      "offenbar": 5494,
      "flipping": 5495,
      "kragen": 5496,
      "employ": 5497,
      "blows": 5498,
      "scenery": 5499,
      "feuerwehrmann": 5500,
      "köpfen": 5501,
      "violett": 5502,
      "spritzen": 5503,
      "vegetable": 5504,
      "abendessen": 5505,
      "halloween": 5506,
      "spraying": 5507,
      "beigefarbenen": 5508,
      "farbige": 5509,
      "flügeln": 5510,
      "stöcken": 5511,
      "jüngere": 5512,
      "reflective": 5513,
      "furnit": 5514,
      "geländemotorradfahrer": 5515,
      "backsteingebäude": 5516,
      "marschieren": 5517,
      "nieder": 5518,
      "inspecting": 5519,
      "sleeveless": 5520,
      "ident": 5521,
      "kilt": 5522,
      "wasserski": 5523,
      "castle": 5524,
      "picknicktisch": 5525,
      "spinning": 5526,
      "grinding": 5527,
      "elektri": 5528,
      "fashion": 5529,
      "stofft": 5530,
      "vacuum": 5531,
      "schotter": 5532,
      "bordstein": 5533,
      "schwenkt": 5534,
      "riesige": 5535,
      "fisherman": 5536,
      "geschmink": 5537,
      "begutachtet": 5538,
      "schweißt": 5539,
      "kontrol": 5540,
      "security": 5541,
      "flüssigkeit": 5542,
      "wissenschaft": 5543,
      "leotard": 5544,
      "gespräch": 5545,
      "similar": 5546,
      "library": 5547,
      "gegenseitig": 5548,
      "konferenz": 5549,
      "furniture": 5550,
      "aquar": 5551,
      "bum": 5552,
      "bunter": 5553,
      "cop": 5554,
      "cigar": 5555,
      "clad": 5556,
      "dad": 5557,
      "fft": 5558,
      "font": 5559,
      "fang": 5560,
      "hm": 5561,
      "ire": 5562,
      "kreide": 5563,
      "nasi": 5564,
      "ox": 5565,
      "pies": 5566,
      "phed": 5567,
      "rons": 5568,
      "reinigen": 5569,
      "tten": 5570,
      "uhr": 5571,
      "wig": 5572,
      "wöhn": 5573,
      "xyl": 5574,
      "yon": 5575,
      "zy": 5576,
      "zone": 5577,
      "inder": 5578,
      "inline": 5579,
      "engel": 5580,
      "anti": 5581,
      "anhän": 5582,
      "chicken": 5583,
      "stan": 5584,
      "stur": 5585,
      "thin": 5586,
      "schar": 5587,
      "schrau": 5588,
      "ora": 5589,
      "dest": 5590,
      "deli": 5591,
      "dess": 5592,
      "spren": 5593,
      "spread": 5594,
      "mente": 5595,
      "esel": 5596,
      "sill": 5597,
      "blö": 5598,
      "boul": 5599,
      "befahren": 5600,
      "bekommen": 5601,
      "dose": 5602,
      "opoly": 5603,
      "ney": 5604,
      "rick": 5605,
      "riot": 5606,
      "gency": 5607,
      "stem": 5608,
      "comm": 5609,
      "vorne": 5610,
      "lifting": 5611,
      "houses": 5612,
      "ungewöhn": 5613,
      "herren": 5614,
      "hundes": 5615,
      "mod": 5616,
      "skul": 5617,
      "parents": 5618,
      "partially": 5619,
      "untersuchen": 5620,
      "zebra": 5621,
      "downtown": 5622,
      "brä": 5623,
      "bris": 5624,
      "igkeit": 5625,
      "backs": 5626,
      "wasserflasche": 5627,
      "broken": 5628,
      "dazu": 5629,
      "ansamm": 5630,
      "gebunden": 5631,
      "geburt": 5632,
      "parkt": 5633,
      "marine": 5634,
      "halsk": 5635,
      "saal": 5636,
      "overhead": 5637,
      "phy": 5638,
      "gehende": 5639,
      "spielern": 5640,
      "schwert": 5641,
      "flur": 5642,
      "flöte": 5643,
      "tribü": 5644,
      "barrel": 5645,
      "betrie": 5646,
      "jeansjacke": 5647,
      "motorbike": 5648,
      "hochge": 5649,
      "univers": 5650,
      "grasfläche": 5651,
      "naked": 5652,
      "fußballfeld": 5653,
      "pret": 5654,
      "karre": 5655,
      "speed": 5656,
      "zusammenge": 5657,
      "balding": 5658,
      "ballett": 5659,
      "turned": 5660,
      "rauch": 5661,
      "rauchen": 5662,
      "trainieren": 5663,
      "altes": 5664,
      "television": 5665,
      "sportwagen": 5666,
      "bürste": 5667,
      "rollt": 5668,
      "noch": 5669,
      "noti": 5670,
      "numer": 5671,
      "planscht": 5672,
      "dunkelhaariger": 5673,
      "ringer": 5674,
      "folded": 5675,
      "frisbeescheibe": 5676,
      "piercing": 5677,
      "objects": 5678,
      "starting": 5679,
      "starren": 5680,
      "badewanne": 5681,
      "nighttime": 5682,
      "cuts": 5683,
      "stairway": 5684,
      "times": 5685,
      "timate": 5686,
      "surrounding": 5687,
      "welpen": 5688,
      "batman": 5689,
      "köche": 5690,
      "calm": 5691,
      "camel": 5692,
      "rainy": 5693,
      "tied": 5694,
      "gymnasi": 5695,
      "converse": 5696,
      "crane": 5697,
      "tauben": 5698,
      "fernse": 5699,
      "monopoly": 5700,
      "dinos": 5701,
      "gepunkt": 5702,
      "scream": 5703,
      "listens": 5704,
      "balances": 5705,
      "digital": 5706,
      "wandern": 5707,
      "bbelt": 5708,
      "farbenfroher": 5709,
      "piste": 5710,
      "stöcke": 5711,
      "catcher": 5712,
      "raises": 5713,
      "geschäftskleidung": 5714,
      "köpfige": 5715,
      "löffel": 5716,
      "palmen": 5717,
      "spark": 5718,
      "euro": 5719,
      "europe": 5720,
      "candles": 5721,
      "entspannen": 5722,
      "sängerin": 5723,
      "waschsalon": 5724,
      "jockeys": 5725,
      "paddeln": 5726,
      "schilder": 5727,
      "story": 5728,
      "following": 5729,
      "kalb": 5730,
      "grimasse": 5731,
      "turnerin": 5732,
      "drahtzaun": 5733,
      "approaching": 5734,
      "emergency": 5735,
      "discussing": 5736,
      "gürtel": 5737,
      "unicycle": 5738,
      "pigeons": 5739,
      "brandung": 5740,
      "fluffy": 5741,
      "elephant": 5742,
      "drückt": 5743,
      "jewelry": 5744,
      "bewölkten": 5745,
      "schmetter": 5746,
      "süßigkeiten": 5747,
      "dimly": 5748,
      "sanddüne": 5749,
      "geldbörse": 5750,
      "intently": 5751,
      "asphalt": 5752,
      "fontä": 5753,
      "xyloph": 5754,
      "ansammlung": 5755,
      "geburtstag": 5756,
      "gymnasium": 5757,
      "aster": 5758,
      "bon": 5759,
      "cameras": 5760,
      "fack": 5761,
      "fanten": 5762,
      "hä": 5763,
      "hier": 5764,
      "hits": 5765,
      "iro": 5766,
      "kim": 5767,
      "kricket": 5768,
      "lein": 5769,
      "ole": 5770,
      "our": 5771,
      "ocul": 5772,
      "plo": 5773,
      "pflü": 5774,
      "rust": 5775,
      "sne": 5776,
      "sad": 5777,
      "ske": 5778,
      "slight": 5779,
      "ument": 5780,
      "vin": 5781,
      "won": 5782,
      "wink": 5783,
      "xe": 5784,
      "zwe": 5785,
      "zern": 5786,
      "zöpfen": 5787,
      "zune": 5788,
      "iner": 5789,
      "engen": 5790,
      "erleucht": 5791,
      "einrad": 5792,
      "ank": 5793,
      "arn": 5794,
      "arzt": 5795,
      "stall": 5796,
      "state": 5797,
      "leckt": 5798,
      "recor": 5799,
      "gefüllt": 5800,
      "eiscre": 5801,
      "aufzu": 5802,
      "mittage": 5803,
      "lack": 5804,
      "laster": 5805,
      "rafting": 5806,
      "etten": 5807,
      "etzt": 5808,
      "toss": 5809,
      "spoon": 5810,
      "bound": 5811,
      "boten": 5812,
      "begle": 5813,
      "bedien": 5814,
      "bedruck": 5815,
      "bespritzt": 5816,
      "unging": 5817,
      "tered": 5818,
      "terrain": 5819,
      "imer": 5820,
      "lobby": 5821,
      "lounging": 5822,
      "neue": 5823,
      "achter": 5824,
      "bert": 5825,
      "verlet": 5826,
      "verlässt": 5827,
      "walmart": 5828,
      "coca": 5829,
      "ftes": 5830,
      "lif": 5831,
      "herz": 5832,
      "beisam": 5833,
      "redheaded": 5834,
      "fort": 5835,
      "forward": 5836,
      "more": 5837,
      "hispan": 5838,
      "schwarzwei": 5839,
      "pottery": 5840,
      "bystand": 5841,
      "ugling": 5842,
      "ends": 5843,
      "ausgeb": 5844,
      "papers": 5845,
      "überprüft": 5846,
      "übergewich": 5847,
      "brit": 5848,
      "oranges": 5849,
      "dritte": 5850,
      "blei": 5851,
      "farbenes": 5852,
      "congre": 5853,
      "saiten": 5854,
      "langärmel": 5855,
      "biking": 5856,
      "zenden": 5857,
      "bün": 5858,
      "büschen": 5859,
      "bückt": 5860,
      "smaller": 5861,
      "struktur": 5862,
      "abel": 5863,
      "obdach": 5864,
      "barber": 5865,
      "barrow": 5866,
      "prob": 5867,
      "qua": 5868,
      "motorräder": 5869,
      "column": 5870,
      "stomach": 5871,
      "crosses": 5872,
      "näht": 5873,
      "baseballspiel": 5874,
      "hüpfen": 5875,
      "plates": 5876,
      "nament": 5877,
      "teammate": 5878,
      "schieben": 5879,
      "carry": 5880,
      "karton": 5881,
      "dunk": 5882,
      "turm": 5883,
      "festhält": 5884,
      "floß": 5885,
      "baumes": 5886,
      "sessel": 5887,
      "sportkleidung": 5888,
      "photos": 5889,
      "rollen": 5890,
      "rush": 5891,
      "putzen": 5892,
      "fireman": 5893,
      "newborn": 5894,
      "swimmers": 5895,
      "kunstwer": 5896,
      "waldweg": 5897,
      "caps": 5898,
      "elefanten": 5899,
      "shades": 5900,
      "shaved": 5901,
      "folgen": 5902,
      "blumenmuster": 5903,
      "versammlung": 5904,
      "regenbogen": 5905,
      "öffnung": 5906,
      "staff": 5907,
      "stahl": 5908,
      "borne": 5909,
      "säugling": 5910,
      "maulkorb": 5911,
      "vielleicht": 5912,
      "called": 5913,
      "rainbow": 5914,
      "teenageralter": 5915,
      "intere": 5916,
      "herunterge": 5917,
      "werkstatt": 5918,
      "scheinbar": 5919,
      "orangefarbene": 5920,
      "fernglas": 5921,
      "monument": 5922,
      "violine": 5923,
      "trailer": 5924,
      "videospiel": 5925,
      "portra": 5926,
      "flowered": 5927,
      "ziegelmauer": 5928,
      "feiert": 5929,
      "shovels": 5930,
      "engaged": 5931,
      "biss": 5932,
      "wrestle": 5933,
      "müllton": 5934,
      "protesting": 5935,
      "zeichnung": 5936,
      "present": 5937,
      "binocul": 5938,
      "raising": 5939,
      "klassenraum": 5940,
      "kapuze": 5941,
      "amongst": 5942,
      "afroamerikaner": 5943,
      "observing": 5944,
      "slim": 5945,
      "haube": 5946,
      "eingezäunten": 5947,
      "verkleidete": 5948,
      "advertising": 5949,
      "tennisspielerin": 5950,
      "pinata": 5951,
      "participate": 5952,
      "bietet": 5953,
      "bewundert": 5954,
      "vögel": 5955,
      "teaching": 5956,
      "fabrik": 5957,
      "bewegen": 5958,
      "zahlreiche": 5959,
      "ruhigen": 5960,
      "doll": 5961,
      "trench": 5962,
      "stürzt": 5963,
      "directions": 5964,
      "früchte": 5965,
      "follows": 5966,
      "weather": 5967,
      "bemalung": 5968,
      "gläsern": 5969,
      "eishockeyspieler": 5970,
      "village": 5971,
      "treibt": 5972,
      "branch": 5973,
      "faulen": 5974,
      "spaziergang": 5975,
      "fußgängerüberweg": 5976,
      "akustik": 5977,
      "gleichen": 5978,
      "enthusi": 5979,
      "schienen": 5980,
      "liquid": 5981,
      "necklace": 5982,
      "medizin": 5983,
      "brauen": 5984,
      "schubkarre": 5985,
      "beneath": 5986,
      "gewändern": 5987,
      "diskutieren": 5988,
      "electronic": 5989,
      "verheiratet": 5990,
      "parasailing": 5991,
      "dudelsack": 5992,
      "aquarium": 5993,
      "anhänger": 5994,
      "numerous": 5995,
      "mittagessen": 5996,
      "beisammen": 5997,
      "ausgebreitet": 5998,
      "00": 5999,
      "11": 6000,
      "ather": 6001,
      "bong": 6002,
      "cree": 6003,
      "cus": 6004,
      "dam": 6005,
      "fänger": 6006,
      "gung": 6007,
      "greifen": 6008,
      "gurt": 6009,
      "hip": 6010,
      "kund": 6011,
      "krä": 6012,
      "mis": 6013,
      "ore": 6014,
      "oes": 6015,
      "rund": 6016,
      "sat": 6017,
      "tv": 6018,
      "tug": 6019,
      "ud": 6020,
      "vent": 6021,
      "zut": 6022,
      "öl": 6023,
      "information": 6024,
      "arrange": 6025,
      "arcade": 6026,
      "stel": 6027,
      "lem": 6028,
      "leop": 6029,
      "retrie": 6030,
      "gemacht": 6031,
      "geschw": 6032,
      "gebeugt": 6033,
      "eile": 6034,
      "aufga": 6035,
      "woll": 6036,
      "wohl": 6037,
      "irted": 6038,
      "races": 6039,
      "spä": 6040,
      "blur": 6041,
      "blio": 6042,
      "share": 6043,
      "shining": 6044,
      "shakes": 6045,
      "ilst": 6046,
      "bevor": 6047,
      "termin": 6048,
      "olo": 6049,
      "love": 6050,
      "whilst": 6051,
      "upon": 6052,
      "webt": 6053,
      "umin": 6054,
      "rich": 6055,
      "tea": 6056,
      "zubereitet": 6057,
      "steel": 6058,
      "verdeckt": 6059,
      "ically": 6060,
      "wns": 6061,
      "fake": 6062,
      "indischer": 6063,
      "ads": 6064,
      "admir": 6065,
      "tiere": 6066,
      "cep": 6067,
      "holen": 6068,
      "straight": 6069,
      "buck": 6070,
      "busses": 6071,
      "soda": 6072,
      "poor": 6073,
      "skim": 6074,
      "skill": 6075,
      "aussicht": 6076,
      "fahrzeuge": 6077,
      "wading": 6078,
      "überdach": 6079,
      "feather": 6080,
      "may": 6081,
      "main": 6082,
      "maschen": 6083,
      "igan": 6084,
      "angehö": 6085,
      "radrennen": 6086,
      "schaum": 6087,
      "kindes": 6088,
      "machines": 6089,
      "tracht": 6090,
      "america": 6091,
      "airborne": 6092,
      "stehender": 6093,
      "iku": 6094,
      "liefer": 6095,
      "drinnen": 6096,
      "bleach": 6097,
      "asien": 6098,
      "gebaut": 6099,
      "teilweise": 6100,
      "conven": 6101,
      "oberfläche": 6102,
      "biblio": 6103,
      "entlanggeht": 6104,
      "bühnen": 6105,
      "dia": 6106,
      "llt": 6107,
      "flat": 6108,
      "bauarbeiten": 6109,
      "odle": 6110,
      "fahrrads": 6111,
      "haarigen": 6112,
      "quick": 6113,
      "collie": 6114,
      "iertes": 6115,
      "hindurch": 6116,
      "brechen": 6117,
      "vieren": 6118,
      "vorbeigeht": 6119,
      "platten": 6120,
      "performers": 6121,
      "asiatinnen": 6122,
      "polit": 6123,
      "gestiku": 6124,
      "basketballspiel": 6125,
      "social": 6126,
      "akers": 6127,
      "rosafarbener": 6128,
      "rosafarbene": 6129,
      "rennens": 6130,
      "ballet": 6131,
      "shops": 6132,
      "gift": 6133,
      "knei": 6134,
      "schirme": 6135,
      "landet": 6136,
      "izing": 6137,
      "teddy": 6138,
      "zeitig": 6139,
      "kesen": 6140,
      "gestreiftes": 6141,
      "ruhen": 6142,
      "skiers": 6143,
      "firemen": 6144,
      "marktplatz": 6145,
      "mates": 6146,
      "glat": 6147,
      "eled": 6148,
      "human": 6149,
      "badezimmer": 6150,
      "lichem": 6151,
      "jubelt": 6152,
      "säulen": 6153,
      "wheelbarrow": 6154,
      "schulkinder": 6155,
      "reifenschaukel": 6156,
      "innenstadt": 6157,
      "photographed": 6158,
      "flips": 6159,
      "turnier": 6160,
      "interview": 6161,
      "interacting": 6162,
      "legten": 6163,
      "rande": 6164,
      "scarves": 6165,
      "fetti": 6166,
      "wenden": 6167,
      "homeless": 6168,
      "aussehenden": 6169,
      "donkey": 6170,
      "kapelle": 6171,
      "glove": 6172,
      "snowboardfahrer": 6173,
      "produkte": 6174,
      "khakis": 6175,
      "pfadfin": 6176,
      "schaufeln": 6177,
      "wrestler": 6178,
      "gleichzeitig": 6179,
      "puppen": 6180,
      "nature": 6181,
      "khakifarbenen": 6182,
      "tricycle": 6183,
      "filmt": 6184,
      "pyra": 6185,
      "tänzerin": 6186,
      "cards": 6187,
      "afroamerikanische": 6188,
      "mmerung": 6189,
      "rothaariges": 6190,
      "splashes": 6191,
      "target": 6192,
      "guns": 6193,
      "sym": 6194,
      "tackle": 6195,
      "trunk": 6196,
      "einsamer": 6197,
      "reflek": 6198,
      "casual": 6199,
      "schaukeln": 6200,
      "trommeln": 6201,
      "rechte": 6202,
      "mitglied": 6203,
      "bändern": 6204,
      "repairs": 6205,
      "athletes": 6206,
      "völ": 6207,
      "bandana": 6208,
      "guards": 6209,
      "figuren": 6210,
      "stirnband": 6211,
      "billboard": 6212,
      "regal": 6213,
      "grimassen": 6214,
      "passenden": 6215,
      "passenger": 6216,
      "niedri": 6217,
      "weaving": 6218,
      "demonstration": 6219,
      "sprüht": 6220,
      "beginnt": 6221,
      "elektron": 6222,
      "förmigen": 6223,
      "leads": 6224,
      "lockigen": 6225,
      "ländlichen": 6226,
      "übung": 6227,
      "charac": 6228,
      "receiving": 6229,
      "aisle": 6230,
      "beanie": 6231,
      "science": 6232,
      "peering": 6233,
      "klatscht": 6234,
      "töpfer": 6235,
      "kürbis": 6236,
      "neugeborenes": 6237,
      "jenga": 6238,
      "cobblestone": 6239,
      "rettungswesten": 6240,
      "dämmerung": 6241,
      "buffet": 6242,
      "nächsten": 6243,
      "karussell": 6244,
      "glatzköpfiger": 6245,
      "silly": 6246,
      "bräun": 6247,
      "tribüne": 6248,
      "pretty": 6249,
      "irokesen": 6250,
      "kimon": 6251,
      "leinwand": 6252,
      "slightly": 6253,
      "achterbahn": 6254,
      "binoculars": 6255,
      "akustikgitarre": 6256,
      "admiring": 6257,
      "angehöri": 6258,
      "bibliothek": 6259,
      "amen": 6260,
      "aid": 6261,
      "acro": 6262,
      "afel": 6263,
      "bunden": 6264,
      "call": 6265,
      "dick": 6266,
      "gli": 6267,
      "hart": 6268,
      "kas": 6269,
      "lu": 6270,
      "late": 6271,
      "mug": 6272,
      "misch": 6273,
      "nor": 6274,
      "nam": 6275,
      "oven": 6276,
      "piert": 6277,
      "satz": 6278,
      "sque": 6279,
      "tam": 6280,
      "tell": 6281,
      "ties": 6282,
      "wange": 6283,
      "welt": 6284,
      "zing": 6285,
      "incl": 6286,
      "ente": 6287,
      "eingesch": 6288,
      "ansicht": 6289,
      "itä": 6290,
      "ites": 6291,
      "ität": 6292,
      "unk": 6293,
      "stance": 6294,
      "manche": 6295,
      "lecture": 6296,
      "reis": 6297,
      "ress": 6298,
      "gef": 6299,
      "gewin": 6300,
      "gefüllten": 6301,
      "rosen": 6302,
      "undy": 6303,
      "ately": 6304,
      "oranger": 6305,
      "ckter": 6306,
      "dec": 6307,
      "design": 6308,
      "debris": 6309,
      "ashed": 6310,
      "ofon": 6311,
      "menade": 6312,
      "blase": 6313,
      "weisung": 6314,
      "bob": 6315,
      "bou": 6316,
      "boss": 6317,
      "shel": 6318,
      "beladen": 6319,
      "terrier": 6320,
      "tending": 6321,
      "imbiss": 6322,
      "sele": 6323,
      "semi": 6324,
      "opes": 6325,
      "loser": 6326,
      "gru": 6327,
      "urs": 6328,
      "denk": 6329,
      "rik": 6330,
      "genom": 6331,
      "zucker": 6332,
      "places": 6333,
      "coaster": 6334,
      "vorbereitet": 6335,
      "vortrag": 6336,
      "lips": 6337,
      "hocker": 6338,
      "tape": 6339,
      "tist": 6340,
      "tively": 6341,
      "herau": 6342,
      "movie": 6343,
      "keys": 6344,
      "sowie": 6345,
      "potat": 6346,
      "sko": 6347,
      "strecken": 6348,
      "ausdruck": 6349,
      "gerichtet": 6350,
      "ultimate": 6351,
      "gelen": 6352,
      "handle": 6353,
      "handschuhe": 6354,
      "feat": 6355,
      "unterwäsche": 6356,
      "entfern": 6357,
      "bru": 6358,
      "lantern": 6359,
      "carts": 6360,
      "waterfront": 6361,
      "waterway": 6362,
      "farmer": 6363,
      "bracht": 6364,
      "sniff": 6365,
      "checks": 6366,
      "cheese": 6367,
      "perü": 6368,
      "broad": 6369,
      "lernt": 6370,
      "halstu": 6371,
      "muslim": 6372,
      "samen": 6373,
      "saft": 6374,
      "sailing": 6375,
      "langhaarige": 6376,
      "overweight": 6377,
      "gehender": 6378,
      "diver": 6379,
      "diger": 6380,
      "flute": 6381,
      "surfen": 6382,
      "stühle": 6383,
      "barrier": 6384,
      "bricht": 6385,
      "betre": 6386,
      "promenade": 6387,
      "geschmü": 6388,
      "scru": 6389,
      "händchen": 6390,
      "zeugnis": 6391,
      "pult": 6392,
      "boote": 6393,
      "landing": 6394,
      "telephone": 6395,
      "lichkeit": 6396,
      "wings": 6397,
      "kunststoff": 6398,
      "computerbildschirm": 6399,
      "blood": 6400,
      "dusk": 6401,
      "radfahrern": 6402,
      "tropical": 6403,
      "welpe": 6404,
      "sporth": 6405,
      "autumn": 6406,
      "schlagmann": 6407,
      "comes": 6408,
      "bilden": 6409,
      "praying": 6410,
      "tires": 6411,
      "bulldo": 6412,
      "venue": 6413,
      "ronen": 6414,
      "fingern": 6415,
      "papiere": 6416,
      "craw": 6417,
      "mitteln": 6418,
      "official": 6419,
      "marathonläufer": 6420,
      "cups": 6421,
      "attention": 6422,
      "artigen": 6423,
      "fahrzeugs": 6424,
      "hotdogs": 6425,
      "porträ": 6426,
      "feuerwehrleute": 6427,
      "entering": 6428,
      "spiele": 6429,
      "sprecher": 6430,
      "laufbahn": 6431,
      "abends": 6432,
      "saxofon": 6433,
      "pflanze": 6434,
      "bbing": 6435,
      "streicht": 6436,
      "tüten": 6437,
      "gymnastik": 6438,
      "lebensmittelgeschäft": 6439,
      "kayaks": 6440,
      "plastiktüte": 6441,
      "punk": 6442,
      "punkt": 6443,
      "unbefestigte": 6444,
      "observes": 6445,
      "examines": 6446,
      "waschbecken": 6447,
      "customer": 6448,
      "itorium": 6449,
      "prüfen": 6450,
      "olympischen": 6451,
      "groceries": 6452,
      "burgundy": 6453,
      "chainsaw": 6454,
      "gesichtsbemalung": 6455,
      "geparkten": 6456,
      "popcorn": 6457,
      "spotted": 6458,
      "company": 6459,
      "fitness": 6460,
      "mixer": 6461,
      "viertel": 6462,
      "hobenen": 6463,
      "paddles": 6464,
      "größ": 6465,
      "barfüßige": 6466,
      "filling": 6467,
      "meeting": 6468,
      "eggs": 6469,
      "messy": 6470,
      "pflasterstraße": 6471,
      "sponge": 6472,
      "thumbs": 6473,
      "kettensäge": 6474,
      "laternen": 6475,
      "ozean": 6476,
      "gestures": 6477,
      "studying": 6478,
      "pistole": 6479,
      "auditorium": 6480,
      "browsing": 6481,
      "ceremony": 6482,
      "consisting": 6483,
      "strickmütze": 6484,
      "inlineskates": 6485,
      "screaming": 6486,
      "sneakers": 6487,
      "lifted": 6488,
      "bystanders": 6489,
      "bündel": 6490,
      "kunstwerke": 6491,
      "mülltonne": 6492,
      "verheiratetes": 6493,
      "bleachers": 6494,
      "gestikuliert": 6495,
      "reflektieren": 6496,
      "acrobat": 6497,
      "genommen": 6498,
      "halstuch": 6499,
      "aim": 6500,
      "ado": 6501,
      "agen": 6502,
      "bite": 6503,
      "biting": 6504,
      "cause": 6505,
      "cakes": 6506,
      "ees": 6507,
      "east": 6508,
      "fat": 6509,
      "fed": 6510,
      "glän": 6511,
      "games": 6512,
      "hung": 6513,
      "jum": 6514,
      "ky": 6515,
      "kie": 6516,
      "kell": 6517,
      "mill": 6518,
      "mischt": 6519,
      "pping": 6520,
      "passi": 6521,
      "rit": 6522,
      "shr": 6523,
      "tas": 6524,
      "trol": 6525,
      "zau": 6526,
      "zom": 6527,
      "zieren": 6528,
      "inn": 6529,
      "einfahrt": 6530,
      "einheim": 6531,
      "aneinander": 6532,
      "anweisung": 6533,
      "chip": 6534,
      "chess": 6535,
      "ities": 6536,
      "unfall": 6537,
      "stare": 6538,
      "stisch": 6539,
      "auß": 6540,
      "recl": 6541,
      "repor": 6542,
      "gesell": 6543,
      "gemuster": 6544,
      "gelegen": 6545,
      "andise": 6546,
      "schick": 6547,
      "altet": 6548,
      "rost": 6549,
      "robat": 6550,
      "ieden": 6551,
      "oring": 6552,
      "orden": 6553,
      "designs": 6554,
      "aufgestellt": 6555,
      "eling": 6556,
      "tomat": 6557,
      "frieden": 6558,
      "spir": 6559,
      "spur": 6560,
      "weil": 6561,
      "shirted": 6562,
      "bekann": 6563,
      "begleitet": 6564,
      "terned": 6565,
      "tender": 6566,
      "ami": 6567,
      "ammer": 6568,
      "opter": 6569,
      "load": 6570,
      "nebel": 6571,
      "mäher": 6572,
      "teal": 6573,
      "placing": 6574,
      "versch": 6575,
      "heading": 6576,
      "covers": 6577,
      "klaren": 6578,
      "vorstellung": 6579,
      "wares": 6580,
      "reihen": 6581,
      "tif": 6582,
      "tired": 6583,
      "watet": 6584,
      "schwarzhaarige": 6585,
      "bucks": 6586,
      "som": 6587,
      "soap": 6588,
      "skaters": 6589,
      "auslage": 6590,
      "ausgestellt": 6591,
      "gericht": 6592,
      "waffel": 6593,
      "loom": 6594,
      "paare": 6595,
      "handing": 6596,
      "strange": 6597,
      "strumpf": 6598,
      "strauß": 6599,
      "angeboten": 6600,
      "radio": 6601,
      "apfel": 6602,
      "backdrop": 6603,
      "umpire": 6604,
      "snap": 6605,
      "arbeitern": 6606,
      "grab": 6607,
      "drängt": 6608,
      "brocken": 6609,
      "snowsuit": 6610,
      "ansieht": 6611,
      "teilnehmer": 6612,
      "langärm": 6613,
      "bigen": 6614,
      "spielerisch": 6615,
      "digt": 6616,
      "schwingen": 6617,
      "tribal": 6618,
      "sandigen": 6619,
      "jackett": 6620,
      "tablett": 6621,
      "stüten": 6622,
      "bricks": 6623,
      "ckenden": 6624,
      "quo": 6625,
      "schneeanzug": 6626,
      "coll": 6627,
      "classi": 6628,
      "scra": 6629,
      "angle": 6630,
      "ational": 6631,
      "kümmert": 6632,
      "nagel": 6633,
      "complete": 6634,
      "mün": 6635,
      "steiger": 6636,
      "pudel": 6637,
      "schnitzt": 6638,
      "akrobat": 6639,
      "autobahn": 6640,
      "ipfel": 6641,
      "schwimmweste": 6642,
      "ernet": 6643,
      "spec": 6644,
      "suitcase": 6645,
      "sonnenschirm": 6646,
      "ichten": 6647,
      "besitz": 6648,
      "mountainbiker": 6649,
      "netze": 6650,
      "schale": 6651,
      "schafe": 6652,
      "herumstehen": 6653,
      "serves": 6654,
      "shoppers": 6655,
      "expre": 6656,
      "explo": 6657,
      "bagpipes": 6658,
      "give": 6659,
      "knöpfen": 6660,
      "knife": 6661,
      "gesichtern": 6662,
      "gestreifter": 6663,
      "spapers": 6664,
      "news": 6665,
      "newspapers": 6666,
      "highway": 6667,
      "computern": 6668,
      "trucks": 6669,
      "blocken": 6670,
      "blockt": 6671,
      "accompan": 6672,
      "cooks": 6673,
      "sely": 6674,
      "badeanzügen": 6675,
      "border": 6676,
      "rutschen": 6677,
      "juice": 6678,
      "sprungbrett": 6679,
      "paperwork": 6680,
      "trop": 6681,
      "bikinis": 6682,
      "forehead": 6683,
      "essor": 6684,
      "amerikanischer": 6685,
      "minton": 6686,
      "knees": 6687,
      "interess": 6688,
      "männliches": 6689,
      "patterned": 6690,
      "burning": 6691,
      "betonwand": 6692,
      "mittelalter": 6693,
      "traditionellen": 6694,
      "miami": 6695,
      "stops": 6696,
      "spannt": 6697,
      "spanish": 6698,
      "schriften": 6699,
      "hamburger": 6700,
      "angeln": 6701,
      "attending": 6702,
      "krat": 6703,
      "scouts": 6704,
      "fischernet": 6705,
      "kraft": 6706,
      "katzen": 6707,
      "fliesen": 6708,
      "breakdance": 6709,
      "köpfe": 6710,
      "freundin": 6711,
      "golfball": 6712,
      "agieren": 6713,
      "verschneite": 6714,
      "soll": 6715,
      "countryside": 6716,
      "alleyway": 6717,
      "visiting": 6718,
      "visible": 6719,
      "wires": 6720,
      "puppies": 6721,
      "blankets": 6722,
      "cycling": 6723,
      "möbel": 6724,
      "professor": 6725,
      "ständer": 6726,
      "stößt": 6727,
      "badminton": 6728,
      "türen": 6729,
      "schleife": 6730,
      "gymnastics": 6731,
      "armee": 6732,
      "scooters": 6733,
      "presenting": 6734,
      "sparring": 6735,
      "schüsseln": 6736,
      "ffelt": 6737,
      "wunderschöne": 6738,
      "touches": 6739,
      "treppenstufen": 6740,
      "tackling": 6741,
      "sweeps": 6742,
      "rollerblading": 6743,
      "reflection": 6744,
      "olympics": 6745,
      "schwebt": 6746,
      "seattle": 6747,
      "hellhäutige": 6748,
      "repairing": 6749,
      "ampel": 6750,
      "staub": 6751,
      "staubs": 6752,
      "eignis": 6753,
      "billard": 6754,
      "cular": 6755,
      "aufgerei": 6756,
      "bewegungen": 6757,
      "inspects": 6758,
      "bemalten": 6759,
      "gegenständen": 6760,
      "sauber": 6761,
      "tutu": 6762,
      "beverages": 6763,
      "geöffneten": 6764,
      "lampen": 6765,
      "fashioned": 6766,
      "treiben": 6767,
      "wolken": 6768,
      "pillows": 6769,
      "tarnkleidung": 6770,
      "rollerskates": 6771,
      "präsentation": 6772,
      "passt": 6773,
      "pigtails": 6774,
      "bamboo": 6775,
      "tätowierung": 6776,
      "tätowierungen": 6777,
      "mcdonald": 6778,
      "mcdonalds": 6779,
      "parachut": 6780,
      "vergnügung": 6781,
      "shadows": 6782,
      "exercise": 6783,
      "trauri": 6784,
      "applying": 6785,
      "trainingsanzug": 6786,
      "heißluftballon": 6787,
      "aufgeregt": 6788,
      "pumpkin": 6789,
      "exhibit": 6790,
      "clapping": 6791,
      "sooners": 6792,
      "dunklem": 6793,
      "inspiz": 6794,
      "strümp": 6795,
      "gebildet": 6796,
      "merchandise": 6797,
      "schnüffelt": 6798,
      "boulder": 6799,
      "rickshaw": 6800,
      "gepunkteten": 6801,
      "fontäne": 6802,
      "tossing": 6803,
      "enthusiast": 6804,
      "maschendrahtzaun": 6805,
      "lieferwagen": 6806,
      "pfadfinder": 6807,
      "symbo": 6808,
      "rikscha": 6809,
      "heraush": 6810,
      "glänzenden": 6811,
      "kellner": 6812,
      "trolley": 6813,
      "gesellschaft": 6814,
      "vergnügungspark": 6815,
      "aal": 6816,
      "able": 6817,
      "biet": 6818,
      "cans": 6819,
      "cage": 6820,
      "dal": 6821,
      "eas": 6822,
      "every": 6823,
      "ffeln": 6824,
      "gten": 6825,
      "gabel": 6826,
      "hing": 6827,
      "hon": 6828,
      "hes": 6829,
      "ipod": 6830,
      "karo": 6831,
      "krü": 6832,
      "kasse": 6833,
      "las": 6834,
      "mur": 6835,
      "nu": 6836,
      "plies": 6837,
      "ran": 6838,
      "rum": 6839,
      "tchen": 6840,
      "tiny": 6841,
      "teile": 6842,
      "uen": 6843,
      "uble": 6844,
      "usu": 6845,
      "wette": 6846,
      "yarn": 6847,
      "üss": 6848,
      "inet": 6849,
      "indem": 6850,
      "inju": 6851,
      "erzeugnis": 6852,
      "einzu": 6853,
      "einwohner": 6854,
      "chatting": 6855,
      "chips": 6856,
      "iti": 6857,
      "unte": 6858,
      "unorden": 6859,
      "unusu": 6860,
      "arri": 6861,
      "arning": 6862,
      "arab": 6863,
      "ston": 6864,
      "stump": 6865,
      "auge": 6866,
      "auten": 6867,
      "maneu": 6868,
      "learning": 6869,
      "record": 6870,
      "gesen": 6871,
      "gesehen": 6872,
      "gesprung": 6873,
      "gefle": 6874,
      "schut": 6875,
      "romat": 6876,
      "roffen": 6877,
      "atm": 6878,
      "eier": 6879,
      "department": 6880,
      "lade": 6881,
      "tomaten": 6882,
      "spo": 6883,
      "spär": 6884,
      "sims": 6885,
      "bohr": 6886,
      "ility": 6887,
      "best": 6888,
      "besteht": 6889,
      "immed": 6890,
      "ersby": 6891,
      "separ": 6892,
      "second": 6893,
      "gren": 6894,
      "ureinwohner": 6895,
      "weap": 6896,
      "diesel": 6897,
      "rice": 6898,
      "steg": 6899,
      "verteilt": 6900,
      "verwenden": 6901,
      "playfully": 6902,
      "coast": 6903,
      "meas": 6904,
      "medium": 6905,
      "vorsprung": 6906,
      "vorführung": 6907,
      "henden": 6908,
      "lifts": 6909,
      "hohe": 6910,
      "hoher": 6911,
      "facil": 6912,
      "ador": 6913,
      "redner": 6914,
      "focu": 6915,
      "ält": 6916,
      "mock": 6917,
      "moder": 6918,
      "mower": 6919,
      "motiv": 6920,
      "modischen": 6921,
      "sides": 6922,
      "busch": 6923,
      "posed": 6924,
      "pocket": 6925,
      "paralle": 6926,
      "auszu": 6927,
      "ausflug": 6928,
      "gery": 6929,
      "papp": 6930,
      "handrail": 6931,
      "überall": 6932,
      "senior": 6933,
      "fecht": 6934,
      "untergrund": 6935,
      "unterricht": 6936,
      "crossed": 6937,
      "smart": 6938,
      "tray": 6939,
      "jeder": 6940,
      "formt": 6941,
      "wasserrutsche": 6942,
      "wasserspren": 6943,
      "gress": 6944,
      "liege": 6945,
      "ließt": 6946,
      "perlen": 6947,
      "braunhaariger": 6948,
      "asians": 6949,
      "larger": 6950,
      "snowshoes": 6951,
      "torch": 6952,
      "march": 6953,
      "teilnehmen": 6954,
      "contest": 6955,
      "oberen": 6956,
      "washer": 6957,
      "kleineren": 6958,
      "watched": 6959,
      "dives": 6960,
      "closely": 6961,
      "nachbar": 6962,
      "trip": 6963,
      "surgery": 6964,
      "offiz": 6965,
      "pinkfarbener": 6966,
      "metro": 6967,
      "stützt": 6968,
      "gathers": 6969,
      "workout": 6970,
      "babys": 6971,
      "motorized": 6972,
      "darbiet": 6973,
      "werker": 6974,
      "beachvolleyball": 6975,
      "treat": 6976,
      "geschlagen": 6977,
      "volks": 6978,
      "bretter": 6979,
      "baseballschläger": 6980,
      "kopfschmuck": 6981,
      "pedal": 6982,
      "kühl": 6983,
      "örtlichen": 6984,
      "bicy": 6985,
      "fußballdress": 6986,
      "boogie": 6987,
      "finished": 6988,
      "underwear": 6989,
      "straßenverkäufer": 6990,
      "kastan": 6991,
      "freude": 6992,
      "turquo": 6993,
      "pfeil": 6994,
      "pfanne": 6995,
      "couples": 6996,
      "cable": 6997,
      "lighted": 6998,
      "serviert": 6999,
      "floats": 7000,
      "bagger": 7001,
      "sunlight": 7002,
      "knall": 7003,
      "passersby": 7004,
      "holzbank": 7005,
      "rollschuh": 7006,
      "artwork": 7007,
      "familien": 7008,
      "kerle": 7009,
      "teens": 7010,
      "grills": 7011,
      "gewicht": 7012,
      "telefonz": 7013,
      "elev": 7014,
      "drag": 7015,
      "draw": 7016,
      "drawn": 7017,
      "opens": 7018,
      "planting": 7019,
      "dunkelten": 7020,
      "huddle": 7021,
      "swimmingpool": 7022,
      "kostüme": 7023,
      "linder": 7024,
      "ienten": 7025,
      "dges": 7026,
      "kleinkinder": 7027,
      "licherweise": 7028,
      "schreien": 7029,
      "smoo": 7030,
      "turnschuhen": 7031,
      "picks": 7032,
      "männlichen": 7033,
      "skyline": 7034,
      "swimsuits": 7035,
      "brettspiel": 7036,
      "zoo": 7037,
      "rows": 7038,
      "belong": 7039,
      "türöffnung": 7040,
      "füllen": 7041,
      "fischt": 7042,
      "feuerwehrauto": 7043,
      "pfahl": 7044,
      "attack": 7045,
      "placed": 7046,
      "jugendlichen": 7047,
      "shoreline": 7048,
      "lebensmitteln": 7049,
      "vorderseite": 7050,
      "rapids": 7051,
      "obststand": 7052,
      "supplies": 7053,
      "practices": 7054,
      "fußgängern": 7055,
      "hallen": 7056,
      "eimern": 7057,
      "beleuchtet": 7058,
      "jogger": 7059,
      "orientalische": 7060,
      "spitzen": 7061,
      "leuchtenden": 7062,
      "kayaking": 7063,
      "löschen": 7064,
      "afroamerikanischer": 7065,
      "japanischen": 7066,
      "jüngerer": 7067,
      "laborkittel": 7068,
      "crouched": 7069,
      "abgeworfen": 7070,
      "silberfarbenen": 7071,
      "slic": 7072,
      "pferdeschwanz": 7073,
      "schlauchboot": 7074,
      "candle": 7075,
      "stammes": 7076,
      "printed": 7077,
      "kaffeet": 7078,
      "einsatz": 7079,
      "celebration": 7080,
      "schütteln": 7081,
      "schwester": 7082,
      "geländewagen": 7083,
      "logs": 7084,
      "superman": 7085,
      "magazines": 7086,
      "laundromat": 7087,
      "ähnlichen": 7088,
      "suspenders": 7089,
      "morgen": 7090,
      "morning": 7091,
      "schachtel": 7092,
      "bekleidet": 7093,
      "bekleideter": 7094,
      "bekleidete": 7095,
      "snacks": 7096,
      "sprüh": 7097,
      "kollegen": 7098,
      "sammeln": 7099,
      "firefighter": 7100,
      "motorcyclists": 7101,
      "carefully": 7102,
      "erdhügel": 7103,
      "tights": 7104,
      "traveling": 7105,
      "ponytail": 7106,
      "dusty": 7107,
      "übungen": 7108,
      "descent": 7109,
      "rollerskating": 7110,
      "präsentiert": 7111,
      "pelz": 7112,
      "victor": 7113,
      "erklimmen": 7114,
      "transportiert": 7115,
      "unterschiedlichen": 7116,
      "bambus": 7117,
      "säule": 7118,
      "adjusting": 7119,
      "wakeboard": 7120,
      "nike": 7121,
      "involved": 7122,
      "spider": 7123,
      "parachute": 7124,
      "seltsamen": 7125,
      "namensschild": 7126,
      "gäste": 7127,
      "begeister": 7128,
      "location": 7129,
      "webstuhl": 7130,
      "desig": 7131,
      "horizont": 7132,
      "dreirad": 7133,
      "möglicherweise": 7134,
      "stolz": 7135,
      "keeper": 7136,
      "militäri": 7137,
      "flauschiger": 7138,
      "verkaufsstand": 7139,
      "melonen": 7140,
      "einkaufstasche": 7141,
      "rosaro": 7142,
      "eisenbahn": 7143,
      "cheek": 7144,
      "zylinder": 7145,
      "zunehmen": 7146,
      "eiscreme": 7147,
      "langärmeligen": 7148,
      "portrait": 7149,
      "creek": 7150,
      "bouquet": 7151,
      "bulldozer": 7152,
      "staubsau": 7153,
      "aufgereiht": 7154,
      "injured": 7155,
      "gesprungen": 7156,
      "spärlich": 7157,
      "focused": 7158,
      "darbietung": 7159,
      "kastanien": 7160,
      "turquoise": 7161,
      "axt": 7162,
      "apart": 7163,
      "bö": 7164,
      "bchen": 7165,
      "cen": 7166,
      "cute": 7167,
      "done": 7168,
      "ext": 7169,
      "floo": 7170,
      "fische": 7171,
      "grad": 7172,
      "gitter": 7173,
      "hop": 7174,
      "hum": 7175,
      "haut": 7176,
      "ifor": 7177,
      "iften": 7178,
      "kio": 7179,
      "mut": 7180,
      "mad": 7181,
      "mist": 7182,
      "ogra": 7183,
      "prie": 7184,
      "sance": 7185,
      "trot": 7186,
      "ually": 7187,
      "vas": 7188,
      "valley": 7189,
      "weinen": 7190,
      "wäl": 7191,
      "wick": 7192,
      "zün": 7193,
      "übers": 7194,
      "ined": 7195,
      "enen": 7196,
      "erhält": 7197,
      "erreichen": 7198,
      "einf": 7199,
      "einrichtung": 7200,
      "einkaufen": 7201,
      "anc": 7202,
      "than": 7203,
      "lean": 7204,
      "leich": 7205,
      "regn": 7206,
      "regner": 7207,
      "gefahren": 7208,
      "gefolgt": 7209,
      "schlo": 7210,
      "aufzug": 7211,
      "lafen": 7212,
      "rag": 7213,
      "racers": 7214,
      "manns": 7215,
      "mannequ": 7216,
      "spat": 7217,
      "blind": 7218,
      "shine": 7219,
      "bewal": 7220,
      "bestellen": 7221,
      "dosen": 7222,
      "seag": 7223,
      "loh": 7224,
      "lokal": 7225,
      "whom": 7226,
      "upward": 7227,
      "mäht": 7228,
      "risten": 7229,
      "verbunden": 7230,
      "hear": 7231,
      "played": 7232,
      "icy": 7233,
      "icopter": 7234,
      "walked": 7235,
      "comic": 7236,
      "lip": 7237,
      "hohem": 7238,
      "heran": 7239,
      "herkunft": 7240,
      "foo": 7241,
      "trans": 7242,
      "ida": 7243,
      "ierung": 7244,
      "ssaal": 7245,
      "sideways": 7246,
      "pow": 7247,
      "pots": 7248,
      "renais": 7249,
      "waist": 7250,
      "wahl": 7251,
      "babies": 7252,
      "papa": 7253,
      "ists": 7254,
      "istert": 7255,
      "unteren": 7256,
      "unterrichtet": 7257,
      "mac": 7258,
      "mast": 7259,
      "mainten": 7260,
      "strugg": 7261,
      "menschenansammlung": 7262,
      "angebracht": 7263,
      "schaulust": 7264,
      "fertigen": 7265,
      "führer": 7266,
      "jewei": 7267,
      "farb": 7268,
      "single": 7269,
      "iker": 7270,
      "desma": 7271,
      "brother": 7272,
      "blech": 7273,
      "asia": 7274,
      "froren": 7275,
      "frozen": 7276,
      "marker": 7277,
      "cons": 7278,
      "helicopter": 7279,
      "sieg": 7280,
      "zens": 7281,
      "flash": 7282,
      "nachrichten": 7283,
      "schneit": 7284,
      "trifft": 7285,
      "bauwerk": 7286,
      "abgestellt": 7287,
      "abgebildet": 7288,
      "obama": 7289,
      "bridesma": 7290,
      "gaze": 7291,
      "workshop": 7292,
      "progra": 7293,
      "profi": 7294,
      "process": 7295,
      "quiet": 7296,
      "motorhaube": 7297,
      "schneeschuhen": 7298,
      "hochzu": 7299,
      "talent": 7300,
      "tread": 7301,
      "strands": 7302,
      "goat": 7303,
      "nächt": 7304,
      "headdress": 7305,
      "joy": 7306,
      "wieder": 7307,
      "mülle": 7308,
      "pub": 7309,
      "puzz": 7310,
      "fußballmannschaft": 7311,
      "gitarristen": 7312,
      "blondhaarige": 7313,
      "schnap": 7314,
      "aktion": 7315,
      "aktiv": 7316,
      "finden": 7317,
      "ttet": 7318,
      "ippen": 7319,
      "roadside": 7320,
      "speer": 7321,
      "special": 7322,
      "ärt": 7323,
      "pfei": 7324,
      "lighting": 7325,
      "serve": 7326,
      "series": 7327,
      "service": 7328,
      "festgebunden": 7329,
      "league": 7330,
      "schütz": 7331,
      "kno": 7332,
      "landstraße": 7333,
      "lächelnden": 7334,
      "zeitschriften": 7335,
      "laut": 7336,
      "bootes": 7337,
      "zeremon": 7338,
      "holzboden": 7339,
      "holzzaun": 7340,
      "stativ": 7341,
      "creme": 7342,
      "creating": 7343,
      "cowgirl": 7344,
      "rudern": 7345,
      "canad": 7346,
      "canvas": 7347,
      "masken": 7348,
      "wetter": 7349,
      "gleis": 7350,
      "surfs": 7351,
      "install": 7352,
      "hills": 7353,
      "displaying": 7354,
      "displays": 7355,
      "disney": 7356,
      "numbers": 7357,
      "shape": 7358,
      "husky": 7359,
      "lens": 7360,
      "bergsteiger": 7361,
      "kites": 7362,
      "kanad": 7363,
      "schutzkleidung": 7364,
      "schutzausrüstung": 7365,
      "partie": 7366,
      "käfig": 7367,
      "pads": 7368,
      "atory": 7369,
      "bildes": 7370,
      "bildern": 7371,
      "richtungen": 7372,
      "musikgruppe": 7373,
      "toddlers": 7374,
      "scheinwerfer": 7375,
      "tournament": 7376,
      "belts": 7377,
      "hiding": 7378,
      "hike": 7379,
      "score": 7380,
      "läuferin": 7381,
      "diner": 7382,
      "lachende": 7383,
      "iously": 7384,
      "schminkt": 7385,
      "flieger": 7386,
      "wanderweg": 7387,
      "reparatur": 7388,
      "stroke": 7389,
      "öffentlichkeit": 7390,
      "products": 7391,
      "herrn": 7392,
      "ziegelwand": 7393,
      "ziegelsteinen": 7394,
      "ausgestreckt": 7395,
      "assist": 7396,
      "butcher": 7397,
      "raption": 7398,
      "rooftop": 7399,
      "earphones": 7400,
      "washes": 7401,
      "streichen": 7402,
      "farbiger": 7403,
      "afrikanischen": 7404,
      "orientalisch": 7405,
      "pillar": 7406,
      "windhund": 7407,
      "gazes": 7408,
      "bindet": 7409,
      "ziellinie": 7410,
      "mmern": 7411,
      "nurses": 7412,
      "silberne": 7413,
      "rücksitz": 7414,
      "rückseite": 7415,
      "decorative": 7416,
      "felsvorsprung": 7417,
      "ebenfalls": 7418,
      "system": 7419,
      "schnellen": 7420,
      "casino": 7421,
      "casually": 7422,
      "furry": 7423,
      "trägern": 7424,
      "cloud": 7425,
      "celebrate": 7426,
      "fliegenden": 7427,
      "trashcan": 7428,
      "burgunder": 7429,
      "schluss": 7430,
      "speise": 7431,
      "contraption": 7432,
      "staubigen": 7433,
      "ruhigem": 7434,
      "juggles": 7435,
      "schrän": 7436,
      "stepping": 7437,
      "scaffold": 7438,
      "sprayed": 7439,
      "those": 7440,
      "häuser": 7441,
      "meiß": 7442,
      "meisten": 7443,
      "wilden": 7444,
      "kauert": 7445,
      "pullunder": 7446,
      "gummi": 7447,
      "finishing": 7448,
      "kabine": 7449,
      "lagerfeuer": 7450,
      "kartons": 7451,
      "approaches": 7452,
      "größer": 7453,
      "amüsiert": 7454,
      "saris": 7455,
      "fröhlich": 7456,
      "branches": 7457,
      "chalkboard": 7458,
      "nasser": 7459,
      "wolke": 7460,
      "mexican": 7461,
      "mexikan": 7462,
      "stilts": 7463,
      "peeking": 7464,
      "speaker": 7465,
      "flannel": 7466,
      "twirl": 7467,
      "involving": 7468,
      "chopping": 7469,
      "thumb": 7470,
      "vergnügt": 7471,
      "begeistert": 7472,
      "located": 7473,
      "driveway": 7474,
      "transportation": 7475,
      "designer": 7476,
      "freizeitpark": 7477,
      "horizon": 7478,
      "klappstuhl": 7479,
      "fächer": 7480,
      "kurzem": 7481,
      "fasst": 7482,
      "gallery": 7483,
      "reklamet": 7484,
      "schlendert": 7485,
      "bronze": 7486,
      "notebook": 7487,
      "galerie": 7488,
      "fremden": 7489,
      "hawaiian": 7490,
      "amidst": 7491,
      "verzierten": 7492,
      "apparat": 7493,
      "embracing": 7494,
      "activity": 7495,
      "sturm": 7496,
      "ungewöhnlichen": 7497,
      "halskette": 7498,
      "university": 7499,
      "notiz": 7500,
      "schmetterling": 7501,
      "übergewichtiger": 7502,
      "british": 7503,
      "obdachloser": 7504,
      "interesting": 7505,
      "heruntergekommen": 7506,
      "bongo": 7507,
      "kräfte": 7508,
      "stelzen": 7509,
      "quickly": 7510,
      "kneipe": 7511,
      "niedrigen": 7512,
      "incline": 7513,
      "eingeschlafen": 7514,
      "grube": 7515,
      "potato": 7516,
      "entfernung": 7517,
      "größeren": 7518,
      "spongebob": 7519,
      "friedens": 7520,
      "collared": 7521,
      "classic": 7522,
      "kratzt": 7523,
      "symbol": 7524,
      "erzeugnisse": 7525,
      "unordentlichen": 7526,
      "facility": 7527,
      "staubsauger": 7528,
      "extre": 7529,
      "gradu": 7530,
      "kiosk": 7531,
      "regnerischen": 7532,
      "schloss": 7533,
      "seagul": 7534,
      "renaissance": 7535,
      "maintenance": 7536,
      "mülleimer": 7537,
      "aw": 7538,
      "aer": 7539,
      "ale": 7540,
      "awn": 7541,
      "aqua": 7542,
      "bzw": 7543,
      "cs": 7544,
      "cident": 7545,
      "dt": 7546,
      "eck": 7547,
      "esta": 7548,
      "fein": 7549,
      "fers": 7550,
      "file": 7551,
      "gte": 7552,
      "gical": 7553,
      "ides": 7554,
      "iage": 7555,
      "ktiv": 7556,
      "kulptur": 7557,
      "lück": 7558,
      "mich": 7559,
      "oh": 7560,
      "och": 7561,
      "osten": 7562,
      "pper": 7563,
      "saus": 7564,
      "tly": 7565,
      "vine": 7566,
      "vily": 7567,
      "wend": 7568,
      "wrist": 7569,
      "yons": 7570,
      "zit": 7571,
      "öser": 7572,
      "üge": 7573,
      "ination": 7574,
      "ench": 7575,
      "ero": 7576,
      "erhö": 7577,
      "erhobenen": 7578,
      "einkäufer": 7579,
      "anhaben": 7580,
      "anzeige": 7581,
      "chir": 7582,
      "chief": 7583,
      "itzer": 7584,
      "unhappy": 7585,
      "ara": 7586,
      "stun": 7587,
      "manö": 7588,
      "leitet": 7589,
      "rele": 7590,
      "remo": 7591,
      "really": 7592,
      "geset": 7593,
      "geflo": 7594,
      "gefangen": 7595,
      "gefallen": 7596,
      "gespannt": 7597,
      "schel": 7598,
      "alko": 7599,
      "almost": 7600,
      "roo": 7601,
      "orch": 7602,
      "isse": 7603,
      "cked": 7604,
      "deten": 7605,
      "law": 7606,
      "ett": 7607,
      "etwa": 7608,
      "frischen": 7609,
      "fried": 7610,
      "french": 7611,
      "menu": 7612,
      "sig": 7613,
      "blut": 7614,
      "blich": 7615,
      "shar": 7616,
      "shiel": 7617,
      "shiny": 7618,
      "beat": 7619,
      "bela": 7620,
      "unglück": 7621,
      "olen": 7622,
      "olli": 7623,
      "tends": 7624,
      "images": 7625,
      "amo": 7626,
      "lou": 7627,
      "lowed": 7628,
      "grind": 7629,
      "upset": 7630,
      "wegen": 7631,
      "diesen": 7632,
      "denkt": 7633,
      "umring": 7634,
      "rid": 7635,
      "rifle": 7636,
      "bends": 7637,
      "spielers": 7638,
      "beret": 7639,
      "berry": 7640,
      "stecken": 7641,
      "verwir": 7642,
      "assage": 7643,
      "cot": 7644,
      "kly": 7645,
      "klar": 7646,
      "vorführt": 7647,
      "warmen": 7648,
      "liz": 7649,
      "lier": 7650,
      "lion": 7651,
      "lieren": 7652,
      "hohes": 7653,
      "indigkeit": 7654,
      "tips": 7655,
      "tiled": 7656,
      "hervor": 7657,
      "foods": 7658,
      "forscher": 7659,
      "outing": 7660,
      "hab": 7661,
      "strapped": 7662,
      "lädt": 7663,
      "kegeln": 7664,
      "skil": 7665,
      "ausgest": 7666,
      "bast": 7667,
      "pac": 7668,
      "pay": 7669,
      "pale": 7670,
      "paket": 7671,
      "gelangen": 7672,
      "handed": 7673,
      "überprüfen": 7674,
      "downhill": 7675,
      "brass": 7676,
      "mais": 7677,
      "stron": 7678,
      "angehalten": 7679,
      "angestell": 7680,
      "angemal": 7681,
      "cara": 7682,
      "aprons": 7683,
      "backflip": 7684,
      "formeller": 7685,
      "wasserbecken": 7686,
      "wasserfläche": 7687,
      "hinterbeinen": 7688,
      "sno": 7689,
      "chewing": 7690,
      "grabs": 7691,
      "grabbing": 7692,
      "guide": 7693,
      "dritten": 7694,
      "dritter": 7695,
      "brochen": 7696,
      "jumper": 7697,
      "dahinter": 7698,
      "lern": 7699,
      "lernen": 7700,
      "parken": 7701,
      "marsh": 7702,
      "say": 7703,
      "sawing": 7704,
      "omet": 7705,
      "kleidungs": 7706,
      "dive": 7707,
      "divers": 7708,
      "built": 7709,
      "illumin": 7710,
      "crowds": 7711,
      "tripod": 7712,
      "sandhügel": 7713,
      "odles": 7714,
      "stuck": 7715,
      "aband": 7716,
      "abteil": 7717,
      "barren": 7718,
      "bartender": 7719,
      "mentary": 7720,
      "tischer": 7721,
      "prop": 7722,
      "darin": 7723,
      "daran": 7724,
      "colate": 7725,
      "unique": 7726,
      "stoop": 7727,
      "geschoben": 7728,
      "scent": 7729,
      "hüpf": 7730,
      "hüllt": 7731,
      "cherry": 7732,
      "tennisplatz": 7733,
      "steile": 7734,
      "uniformierte": 7735,
      "uniformierter": 7736,
      "decker": 7737,
      "gesturing": 7738,
      "akten": 7739,
      "stripe": 7740,
      "dunking": 7741,
      "fahrenden": 7742,
      "ishment": 7743,
      "straßenarbeiter": 7744,
      "straßenseite": 7745,
      "straßenmusiker": 7746,
      "außenbereich": 7747,
      "besucht": 7748,
      "pfan": 7749,
      "painter": 7750,
      "schaf": 7751,
      "getroffen": 7752,
      "ppt": 7753,
      "schützen": 7754,
      "schützt": 7755,
      "heller": 7756,
      "knö": 7757,
      "known": 7758,
      "lands": 7759,
      "holzkonstruktion": 7760,
      "garn": 7761,
      "steintreppe": 7762,
      "putzer": 7763,
      "shower": 7764,
      "dribbelt": 7765,
      "noon": 7766,
      "telefonieren": 7767,
      "betrachter": 7768,
      "highchair": 7769,
      "fishes": 7770,
      "elekt": 7771,
      "elementary": 7772,
      "delt": 7773,
      "dragging": 7774,
      "iven": 7775,
      "shake": 7776,
      "pencil": 7777,
      "hub": 7778,
      "fenstern": 7779,
      "foliage": 7780,
      "feuerwerk": 7781,
      "regenmantel": 7782,
      "rieben": 7783,
      "öffnen": 7784,
      "cellphones": 7785,
      "schoko": 7786,
      "pathway": 7787,
      "zauns": 7788,
      "partner": 7789,
      "flusses": 7790,
      "flussufer": 7791,
      "welcome": 7792,
      "wheeler": 7793,
      "liegende": 7794,
      "ladens": 7795,
      "spaziert": 7796,
      "camper": 7797,
      "raincoat": 7798,
      "eiswagen": 7799,
      "tooth": 7800,
      "melons": 7801,
      "pattern": 7802,
      "patienten": 7803,
      "scheinlich": 7804,
      "afternoon": 7805,
      "einkaufstüten": 7806,
      "orangefarbenes": 7807,
      "bbles": 7808,
      "crates": 7809,
      "kämpft": 7810,
      "monkey": 7811,
      "traditionelle": 7812,
      "flipflops": 7813,
      "wenn": 7814,
      "aussehendes": 7815,
      "medit": 7816,
      "bedroom": 7817,
      "rasenfläche": 7818,
      "rasenmäher": 7819,
      "chinesische": 7820,
      "happen": 7821,
      "cheerleading": 7822,
      "ladung": 7823,
      "scenic": 7824,
      "breakdancing": 7825,
      "snowboards": 7826,
      "checkers": 7827,
      "seichten": 7828,
      "writes": 7829,
      "types": 7830,
      "concentr": 7831,
      "begins": 7832,
      "ausgezogen": 7833,
      "schürzen": 7834,
      "solo": 7835,
      "vorderen": 7836,
      "visor": 7837,
      "protesters": 7838,
      "protestiert": 7839,
      "operates": 7840,
      "earth": 7841,
      "memor": 7842,
      "tanzfläche": 7843,
      "displayed": 7844,
      "flügel": 7845,
      "jogs": 7846,
      "gegnerische": 7847,
      "stiefel": 7848,
      "brushes": 7849,
      "zeichnen": 7850,
      "circular": 7851,
      "gazing": 7852,
      "bären": 7853,
      "binden": 7854,
      "flugzeugs": 7855,
      "kampfsportler": 7856,
      "decorations": 7857,
      "gardening": 7858,
      "felsbrocken": 7859,
      "treppenhaus": 7860,
      "rasier": 7861,
      "sorting": 7862,
      "zzy": 7863,
      "waterski": 7864,
      "schlammigen": 7865,
      "heavily": 7866,
      "sledding": 7867,
      "clouds": 7868,
      "tätowierte": 7869,
      "wärmen": 7870,
      "olympic": 7871,
      "chocolate": 7872,
      "beamte": 7873,
      "containing": 7874,
      "röhre": 7875,
      "schwestern": 7876,
      "irgendwo": 7877,
      "wildwasser": 7878,
      "weiteren": 7879,
      "angezogener": 7880,
      "booths": 7881,
      "kapuzenpullover": 7882,
      "cleaner": 7883,
      "ähnlich": 7884,
      "schachteln": 7885,
      "speedo": 7886,
      "stacked": 7887,
      "sicherheitsweste": 7888,
      "würde": 7889,
      "farmers": 7890,
      "attractive": 7891,
      "attraktive": 7892,
      "ducks": 7893,
      "gläser": 7894,
      "vergnügen": 7895,
      "entfernen": 7896,
      "segelboot": 7897,
      "essensstand": 7898,
      "kartof": 7899,
      "bathtub": 7900,
      "hübschen": 7901,
      "hübsche": 7902,
      "strolls": 7903,
      "fassade": 7904,
      "vices": 7905,
      "geschnittenen": 7906,
      "adjusts": 7907,
      "chopsticks": 7908,
      "bouncing": 7909,
      "musikinstrumente": 7910,
      "stromschnellen": 7911,
      "muzzle": 7912,
      "muzzled": 7913,
      "schneebedeckte": 7914,
      "schneebedecktes": 7915,
      "dumpster": 7916,
      "kulisse": 7917,
      "absperrung": 7918,
      "tagsüber": 7919,
      "passagiere": 7920,
      "butterfly": 7921,
      "reklame": 7922,
      "steuer": 7923,
      "cockpit": 7924,
      "bauernmarkt": 7925,
      "plüschtier": 7926,
      "verteidiger": 7927,
      "religious": 7928,
      "industri": 7929,
      "employees": 7930,
      "elektrischen": 7931,
      "kontrolle": 7932,
      "dessert": 7933,
      "befahrenen": 7934,
      "fernseher": 7935,
      "fackel": 7936,
      "wonder": 7937,
      "erleuchteten": 7938,
      "recording": 7939,
      "bedienen": 7940,
      "bedruckten": 7941,
      "sattel": 7942,
      "geschwindigkeit": 7943,
      "aufgaben": 7944,
      "späht": 7945,
      "überdachten": 7946,
      "glatze": 7947,
      "völlig": 7948,
      "irokesenschnitt": 7949,
      "kimonos": 7950,
      "squee": 7951,
      "featuring": 7952,
      "bruder": 7953,
      "sniffing": 7954,
      "perücke": 7955,
      "betreten": 7956,
      "porträt": 7957,
      "jumped": 7958,
      "passiert": 7959,
      "task": 7960,
      "münz": 7961,
      "fischernetz": 7962,
      "heraushängen": 7963,
      "karohemd": 7964,
      "bohrmaschine": 7965,
      "parallel": 7966,
      "nachbarschaft": 7967,
      "bicycling": 7968,
      "telefonzelle": 7969,
      "belongings": 7970,
      "begeisterung": 7971,
      "bewaldeten": 7972,
      "footed": 7973,
      "jeweils": 7974,
      "canadian": 7975,
      "reklametafel": 7976,
      "heruntergekommenen": 7977,
      "establ": 7978,
      "chirur": 7979,
      "alkohol": 7980,
      "umringt": 7981,
      "30": 7982,
      "50": 7983,
      "affe": 7984,
      "bunge": 7985,
      "bump": 7986,
      "cru": 7987,
      "cash": 7988,
      "citi": 7989,
      "dro": 7990,
      "dicken": 7991,
      "elabor": 7992,
      "gipfel": 7993,
      "had": 7994,
      "jama": 7995,
      "kup": 7996,
      "ktem": 7997,
      "kamm": 7998,
      "latz": 7999
    },
    "merges": [
      [
        "i",
        "n"
      ],
      [
        "e",
        "n"
      ],
      [
        "e",
        "r"
      ],
      [
        "e",
        "in"
      ],
      [
        "a",
        "n"
      ],
      [
        "c",
        "h"
      ],
      [
        "i",
        "t"
      ],
      [
        "in",
        "g"
      ],
      [
        "u",
        "n"
      ],
      [
        "ein",
        "e"
      ],
      [
        "a",
        "r"
      ],
      [
        "s",
        "t"
      ],
      [
        "a",
        "u"
      ],
      [
        "o",
        "n"
      ],
      [
        "m",
        "an"
      ],
      [
        "t",
        "h"
      ],
      [
        "l",
        "e"
      ],
      [
        "r",
        "e"
      ],
      [
        "g",
        "e"
      ],
      [
        "an",
        "d"
      ],
      [
        "s",
        "ch"
      ],
      [
        "a",
        "l"
      ],
      [
        "eine",
        "m"
      ],
      [
        "r",
        "o"
      ],
      [
        "un",
        "d"
      ],
      [
        "i",
        "e"
      ],
      [
        "a",
        "t"
      ],
      [
        "e",
        "i"
      ],
      [
        "o",
        "r"
      ],
      [
        "i",
        "s"
      ],
      [
        "th",
        "e"
      ],
      [
        "c",
        "k"
      ],
      [
        "d",
        "e"
      ],
      [
        "a",
        "s"
      ],
      [
        "au",
        "f"
      ],
      [
        "m",
        "it"
      ],
      [
        "w",
        "o"
      ],
      [
        "l",
        "a"
      ],
      [
        "i",
        "r"
      ],
      [
        "d",
        "er"
      ],
      [
        "r",
        "a"
      ],
      [
        "e",
        "l"
      ],
      [
        "e",
        "t"
      ],
      [
        "o",
        "f"
      ],
      [
        "man",
        "n"
      ],
      [
        "ein",
        "er"
      ],
      [
        "t",
        "o"
      ],
      [
        "f",
        "r"
      ],
      [
        "s",
        "p"
      ],
      [
        "m",
        "en"
      ],
      [
        "e",
        "s"
      ],
      [
        "s",
        "i"
      ],
      [
        "h",
        "r"
      ],
      [
        "b",
        "l"
      ],
      [
        "w",
        "ei"
      ],
      [
        "b",
        "o"
      ],
      [
        "it",
        "h"
      ],
      [
        "w",
        "ith"
      ],
      [
        "p",
        "e"
      ],
      [
        "s",
        "h"
      ],
      [
        "i",
        "l"
      ],
      [
        "b",
        "e"
      ],
      [
        "un",
        "g"
      ],
      [
        "t",
        "er"
      ],
      [
        "o",
        "l"
      ],
      [
        "al",
        "l"
      ],
      [
        "t",
        "en"
      ],
      [
        "i",
        "m"
      ],
      [
        "er",
        "s"
      ],
      [
        "s",
        "it"
      ],
      [
        "u",
        "t"
      ],
      [
        "a",
        "m"
      ],
      [
        "fr",
        "au"
      ],
      [
        "d",
        "o"
      ],
      [
        "s",
        "e"
      ],
      [
        "o",
        "p"
      ],
      [
        "l",
        "o"
      ],
      [
        "w",
        "h"
      ],
      [
        "g",
        "r"
      ],
      [
        "u",
        "p"
      ],
      [
        "n",
        "e"
      ],
      [
        "u",
        "r"
      ],
      [
        "w",
        "e"
      ],
      [
        "ie",
        "l"
      ],
      [
        "h",
        "t"
      ],
      [
        "ar",
        "e"
      ],
      [
        "d",
        "ie"
      ],
      [
        "d",
        "en"
      ],
      [
        "ein",
        "en"
      ],
      [
        "m",
        "ä"
      ],
      [
        "u",
        "m"
      ],
      [
        "r",
        "i"
      ],
      [
        "k",
        "ing"
      ],
      [
        "t",
        "e"
      ],
      [
        "wo",
        "man"
      ],
      [
        "z",
        "wei"
      ],
      [
        "g",
        "en"
      ],
      [
        "t",
        "wo"
      ],
      [
        "b",
        "en"
      ],
      [
        "a",
        "ch"
      ],
      [
        "sp",
        "iel"
      ],
      [
        "ir",
        "t"
      ],
      [
        "b",
        "er"
      ],
      [
        "b",
        "all"
      ],
      [
        "z",
        "u"
      ],
      [
        "p",
        "la"
      ],
      [
        "g",
        "ro"
      ],
      [
        "st",
        "e"
      ],
      [
        "v",
        "er"
      ],
      [
        "d",
        "ing"
      ],
      [
        "h",
        "e"
      ],
      [
        "ch",
        "en"
      ],
      [
        "sh",
        "irt"
      ],
      [
        "pe",
        "op"
      ],
      [
        "peop",
        "le"
      ],
      [
        "pla",
        "y"
      ],
      [
        "as",
        "s"
      ],
      [
        "a",
        "ck"
      ],
      [
        "i",
        "c"
      ],
      [
        "w",
        "al"
      ],
      [
        "c",
        "o"
      ],
      [
        "k",
        "l"
      ],
      [
        "m",
        "e"
      ],
      [
        "st",
        "and"
      ],
      [
        "ar",
        "ing"
      ],
      [
        "v",
        "or"
      ],
      [
        "t",
        "ing"
      ],
      [
        "p",
        "ers"
      ],
      [
        "w",
        "ar"
      ],
      [
        "pers",
        "on"
      ],
      [
        "h",
        "en"
      ],
      [
        "sit",
        "z"
      ],
      [
        "f",
        "t"
      ],
      [
        "si",
        "ch"
      ],
      [
        "l",
        "i"
      ],
      [
        "h",
        "o"
      ],
      [
        "we",
        "aring"
      ],
      [
        "it",
        "e"
      ],
      [
        "w",
        "n"
      ],
      [
        "f",
        "a"
      ],
      [
        "re",
        "i"
      ],
      [
        "t",
        "a"
      ],
      [
        "ß",
        "en"
      ],
      [
        "in",
        "d"
      ],
      [
        "y",
        "o"
      ],
      [
        "v",
        "on"
      ],
      [
        "a",
        "d"
      ],
      [
        "n",
        "er"
      ],
      [
        "un",
        "ge"
      ],
      [
        "t",
        "i"
      ],
      [
        "de",
        "m"
      ],
      [
        "h",
        "er"
      ],
      [
        "yo",
        "ung"
      ],
      [
        "g",
        "t"
      ],
      [
        "b",
        "ei"
      ],
      [
        "re",
        "d"
      ],
      [
        "j",
        "unge"
      ],
      [
        "th",
        "er"
      ],
      [
        "ä",
        "hr"
      ],
      [
        "f",
        "o"
      ],
      [
        "t",
        "r"
      ],
      [
        "t",
        "s"
      ],
      [
        "i",
        "le"
      ],
      [
        "u",
        "e"
      ],
      [
        "bo",
        "y"
      ],
      [
        "wh",
        "ite"
      ],
      [
        "f",
        "or"
      ],
      [
        "sch",
        "en"
      ],
      [
        "ir",
        "l"
      ],
      [
        "o",
        "ut"
      ],
      [
        "ä",
        "l"
      ],
      [
        "il",
        "d"
      ],
      [
        "g",
        "irl"
      ],
      [
        "d",
        "chen"
      ],
      [
        "i",
        "d"
      ],
      [
        "ß",
        "e"
      ],
      [
        "mä",
        "dchen"
      ],
      [
        "k",
        "le"
      ],
      [
        "i",
        "er"
      ],
      [
        "on",
        "e"
      ],
      [
        "do",
        "g"
      ],
      [
        "h",
        "und"
      ],
      [
        "b",
        "la"
      ],
      [
        "h",
        "a"
      ],
      [
        "n",
        "en"
      ],
      [
        "m",
        "o"
      ],
      [
        "bla",
        "ck"
      ],
      [
        "w",
        "at"
      ],
      [
        "mä",
        "n"
      ],
      [
        "s",
        "s"
      ],
      [
        "c",
        "e"
      ],
      [
        "h",
        "ol"
      ],
      [
        "h",
        "is"
      ],
      [
        "si",
        "de"
      ],
      [
        "st",
        "ra"
      ],
      [
        "sch",
        "war"
      ],
      [
        "l",
        "ä"
      ],
      [
        "wh",
        "ile"
      ],
      [
        "schwar",
        "z"
      ],
      [
        "b",
        "u"
      ],
      [
        "k",
        "e"
      ],
      [
        "s",
        "o"
      ],
      [
        "bl",
        "ue"
      ],
      [
        "p",
        "o"
      ],
      [
        "r",
        "en"
      ],
      [
        "eine",
        "s"
      ],
      [
        "bl",
        "au"
      ],
      [
        "s",
        "k"
      ],
      [
        "män",
        "ner"
      ],
      [
        "st",
        "re"
      ],
      [
        "b",
        "y"
      ],
      [
        "ste",
        "ht"
      ],
      [
        "p",
        "ar"
      ],
      [
        "u",
        "g"
      ],
      [
        "en",
        "d"
      ],
      [
        "au",
        "s"
      ],
      [
        "sit",
        "ting"
      ],
      [
        "g",
        "er"
      ],
      [
        "fa",
        "hr"
      ],
      [
        "u",
        "l"
      ],
      [
        "w",
        "a"
      ],
      [
        "lo",
        "o"
      ],
      [
        "ch",
        "ild"
      ],
      [
        "b",
        "a"
      ],
      [
        "h",
        "in"
      ],
      [
        "p",
        "a"
      ],
      [
        "ge",
        "l"
      ],
      [
        "sitz",
        "t"
      ],
      [
        "h",
        "and"
      ],
      [
        "stand",
        "ing"
      ],
      [
        "e",
        "d"
      ],
      [
        "ü",
        "ber"
      ],
      [
        "and",
        "er"
      ],
      [
        "s",
        "en"
      ],
      [
        "play",
        "ing"
      ],
      [
        "gro",
        "up"
      ],
      [
        "ch",
        "t"
      ],
      [
        "f",
        "e"
      ],
      [
        "stre",
        "et"
      ],
      [
        "stra",
        "ße"
      ],
      [
        "i",
        "st"
      ],
      [
        "gr",
        "up"
      ],
      [
        "h",
        "äl"
      ],
      [
        "un",
        "ter"
      ],
      [
        "z",
        "e"
      ],
      [
        "do",
        "wn"
      ],
      [
        "en",
        "t"
      ],
      [
        "b",
        "r"
      ],
      [
        "ar",
        "d"
      ],
      [
        "l",
        "an"
      ],
      [
        "grup",
        "pe"
      ],
      [
        "v",
        "e"
      ],
      [
        "on",
        "t"
      ],
      [
        "häl",
        "t"
      ],
      [
        "m",
        "a"
      ],
      [
        "he",
        "m"
      ],
      [
        "w",
        "ähr"
      ],
      [
        "währ",
        "end"
      ],
      [
        "re",
        "e"
      ],
      [
        "st",
        "r"
      ],
      [
        "h",
        "at"
      ],
      [
        "wal",
        "king"
      ],
      [
        "i",
        "g"
      ],
      [
        "f",
        "en"
      ],
      [
        "men",
        "schen"
      ],
      [
        "o",
        "w"
      ],
      [
        "wal",
        "k"
      ],
      [
        "spiel",
        "t"
      ],
      [
        "fr",
        "ont"
      ],
      [
        "an",
        "ge"
      ],
      [
        "sp",
        "r"
      ],
      [
        "c",
        "ro"
      ],
      [
        "d",
        "re"
      ],
      [
        "hem",
        "d"
      ],
      [
        "ra",
        "d"
      ],
      [
        "el",
        "l"
      ],
      [
        "o",
        "t"
      ],
      [
        "j",
        "ack"
      ],
      [
        "sch",
        "au"
      ],
      [
        "d",
        "as"
      ],
      [
        "s",
        "m"
      ],
      [
        "c",
        "ar"
      ],
      [
        "f",
        "er"
      ],
      [
        "k",
        "in"
      ],
      [
        "f",
        "ü"
      ],
      [
        "hol",
        "ding"
      ],
      [
        "o",
        "ther"
      ],
      [
        "in",
        "k"
      ],
      [
        "d",
        "ur"
      ],
      [
        "person",
        "en"
      ],
      [
        "wat",
        "er"
      ],
      [
        "m",
        "ach"
      ],
      [
        "so",
        "me"
      ],
      [
        "t",
        "ra"
      ],
      [
        "i",
        "ck"
      ],
      [
        "w",
        "or"
      ],
      [
        "it",
        "t"
      ],
      [
        "am",
        "er"
      ],
      [
        "j",
        "e"
      ],
      [
        "lo",
        "w"
      ],
      [
        "at",
        "e"
      ],
      [
        "k",
        "ind"
      ],
      [
        "m",
        "p"
      ],
      [
        "a",
        "p"
      ],
      [
        "i",
        "h"
      ],
      [
        "d",
        "rei"
      ],
      [
        "b",
        "ack"
      ],
      [
        "ä",
        "n"
      ],
      [
        "blau",
        "en"
      ],
      [
        "kle",
        "id"
      ],
      [
        "f",
        "ar"
      ],
      [
        "w",
        "ass"
      ],
      [
        "b",
        "as"
      ],
      [
        "a",
        "ir"
      ],
      [
        "um",
        "p"
      ],
      [
        "u",
        "ft"
      ],
      [
        "ste",
        "hen"
      ],
      [
        "for",
        "m"
      ],
      [
        "j",
        "ung"
      ],
      [
        "s",
        "ing"
      ],
      [
        "th",
        "ree"
      ],
      [
        "ei",
        "l"
      ],
      [
        "y",
        "ing"
      ],
      [
        "wass",
        "er"
      ],
      [
        "wei",
        "ßen"
      ],
      [
        "kin",
        "der"
      ],
      [
        "th",
        "ro"
      ],
      [
        "i",
        "k"
      ],
      [
        "r",
        "un"
      ],
      [
        "ne",
        "ben"
      ],
      [
        "g",
        "re"
      ],
      [
        "ar",
        "be"
      ],
      [
        "b",
        "ra"
      ],
      [
        "i",
        "sch"
      ],
      [
        "hin",
        "ter"
      ],
      [
        "sitz",
        "en"
      ],
      [
        "s",
        "n"
      ],
      [
        "f",
        "el"
      ],
      [
        "frau",
        "en"
      ],
      [
        "l",
        "ie"
      ],
      [
        "ch",
        "e"
      ],
      [
        "dur",
        "ch"
      ],
      [
        "arbe",
        "it"
      ],
      [
        "ro",
        "ten"
      ],
      [
        "wo",
        "men"
      ],
      [
        "g",
        "ra"
      ],
      [
        "spr",
        "ing"
      ],
      [
        "g",
        "u"
      ],
      [
        "p",
        "er"
      ],
      [
        "or",
        "ange"
      ],
      [
        "de",
        "s"
      ],
      [
        "d",
        "r"
      ],
      [
        "im",
        "m"
      ],
      [
        "b",
        "ro"
      ],
      [
        "spiel",
        "en"
      ],
      [
        "b",
        "le"
      ],
      [
        "gre",
        "en"
      ],
      [
        "loo",
        "king"
      ],
      [
        "j",
        "ump"
      ],
      [
        "gr",
        "ü"
      ],
      [
        "d",
        "a"
      ],
      [
        "bra",
        "un"
      ],
      [
        "l",
        "itt"
      ],
      [
        "as",
        "i"
      ],
      [
        "l",
        "ar"
      ],
      [
        "tr",
        "ä"
      ],
      [
        "litt",
        "le"
      ],
      [
        "ge",
        "ht"
      ],
      [
        "bo",
        "ard"
      ],
      [
        "ä",
        "u"
      ],
      [
        "f",
        "ro"
      ],
      [
        "sn",
        "ow"
      ],
      [
        "l",
        "er"
      ],
      [
        "an",
        "s"
      ],
      [
        "i",
        "de"
      ],
      [
        "ge",
        "b"
      ],
      [
        "far",
        "ben"
      ],
      [
        "par",
        "k"
      ],
      [
        "f",
        "ähr"
      ],
      [
        "it",
        "ar"
      ],
      [
        "fähr",
        "t"
      ],
      [
        "t",
        "or"
      ],
      [
        "out",
        "side"
      ],
      [
        "ug",
        "h"
      ],
      [
        "on",
        "g"
      ],
      [
        "trä",
        "gt"
      ],
      [
        "m",
        "ar"
      ],
      [
        "h",
        "al"
      ],
      [
        "gro",
        "und"
      ],
      [
        "lar",
        "ge"
      ],
      [
        "d",
        "s"
      ],
      [
        "i",
        "on"
      ],
      [
        "t",
        "eil"
      ],
      [
        "c",
        "on"
      ],
      [
        "k",
        "s"
      ],
      [
        "m",
        "u"
      ],
      [
        "s",
        "a"
      ],
      [
        "lan",
        "g"
      ],
      [
        "o",
        "ber"
      ],
      [
        "o",
        "ver"
      ],
      [
        "thro",
        "ugh"
      ],
      [
        "h",
        "n"
      ],
      [
        "l",
        "ass"
      ],
      [
        "hr",
        "er"
      ],
      [
        "o",
        "m"
      ],
      [
        "h",
        "el"
      ],
      [
        "amer",
        "a"
      ],
      [
        "bro",
        "wn"
      ],
      [
        "k",
        "et"
      ],
      [
        "y",
        "el"
      ],
      [
        "yel",
        "low"
      ],
      [
        "c",
        "le"
      ],
      [
        "b",
        "i"
      ],
      [
        "kl",
        "eines"
      ],
      [
        "s",
        "ie"
      ],
      [
        "child",
        "ren"
      ],
      [
        "wei",
        "ß"
      ],
      [
        "e",
        "m"
      ],
      [
        "s",
        "u"
      ],
      [
        "mach",
        "t"
      ],
      [
        "p",
        "h"
      ],
      [
        "bl",
        "on"
      ],
      [
        "se",
        "d"
      ],
      [
        "ck",
        "e"
      ],
      [
        "ut",
        "e"
      ],
      [
        "ei",
        "r"
      ],
      [
        "kleid",
        "ung"
      ],
      [
        "spring",
        "t"
      ],
      [
        "er",
        "t"
      ],
      [
        "t",
        "u"
      ],
      [
        "z",
        "en"
      ],
      [
        "f",
        "f"
      ],
      [
        "w",
        "as"
      ],
      [
        "el",
        "t"
      ],
      [
        "schwarz",
        "en"
      ],
      [
        "ent",
        "lang"
      ],
      [
        "fro",
        "m"
      ],
      [
        "kl",
        "einer"
      ],
      [
        "th",
        "eir"
      ],
      [
        "b",
        "ü"
      ],
      [
        "in",
        "to"
      ],
      [
        "a",
        "ge"
      ],
      [
        "v",
        "ers"
      ],
      [
        "sk",
        "ate"
      ],
      [
        "ge",
        "hen"
      ],
      [
        "in",
        "e"
      ],
      [
        "we",
        "g"
      ],
      [
        "x",
        "t"
      ],
      [
        "t",
        "an"
      ],
      [
        "spiel",
        "er"
      ],
      [
        "wat",
        "ch"
      ],
      [
        "n",
        "ing"
      ],
      [
        "d",
        "i"
      ],
      [
        "bu",
        "il"
      ],
      [
        "sm",
        "all"
      ],
      [
        "c",
        "lo"
      ],
      [
        "th",
        "ing"
      ],
      [
        "g",
        "ht"
      ],
      [
        "l",
        "l"
      ],
      [
        "sch",
        "w"
      ],
      [
        "buil",
        "ding"
      ],
      [
        "f",
        "l"
      ],
      [
        "le",
        "ute"
      ],
      [
        "am",
        "e"
      ],
      [
        "to",
        "p"
      ],
      [
        "f",
        "u"
      ],
      [
        "ne",
        "xt"
      ],
      [
        "str",
        "u"
      ],
      [
        "s",
        "sed"
      ],
      [
        "re",
        "st"
      ],
      [
        "il",
        "l"
      ],
      [
        "n",
        "ach"
      ],
      [
        "sch",
        "ne"
      ],
      [
        "cro",
        "w"
      ],
      [
        "s",
        "w"
      ],
      [
        "me",
        "hrer"
      ],
      [
        "ne",
        "ar"
      ],
      [
        "t",
        "ri"
      ],
      [
        "dre",
        "ssed"
      ],
      [
        "s",
        "and"
      ],
      [
        "b",
        "au"
      ],
      [
        "jack",
        "et"
      ],
      [
        "ta",
        "ble"
      ],
      [
        "o",
        "d"
      ],
      [
        "st",
        "u"
      ],
      [
        "st",
        "er"
      ],
      [
        "s",
        "ur"
      ],
      [
        "fu",
        "ß"
      ],
      [
        "il",
        "le"
      ],
      [
        "d",
        "y"
      ],
      [
        "of",
        "f"
      ],
      [
        "kle",
        "ide"
      ],
      [
        "w",
        "ir"
      ],
      [
        "p",
        "ink"
      ],
      [
        "ober",
        "teil"
      ],
      [
        "fahr",
        "rad"
      ],
      [
        "ma",
        "le"
      ],
      [
        "gr",
        "ass"
      ],
      [
        "geb",
        "äu"
      ],
      [
        "v",
        "ing"
      ],
      [
        "a",
        "b"
      ],
      [
        "i",
        "hr"
      ],
      [
        "l",
        "y"
      ],
      [
        "ro",
        "ck"
      ],
      [
        "m",
        "et"
      ],
      [
        "st",
        "ü"
      ],
      [
        "el",
        "n"
      ],
      [
        "o",
        "b"
      ],
      [
        "sh",
        "or"
      ],
      [
        "b",
        "ar"
      ],
      [
        "äl",
        "ter"
      ],
      [
        "b",
        "and"
      ],
      [
        "b",
        "ri"
      ],
      [
        "g",
        "a"
      ],
      [
        "ih",
        "re"
      ],
      [
        "f",
        "i"
      ],
      [
        "ar",
        "o"
      ],
      [
        "men",
        "t"
      ],
      [
        "et",
        "was"
      ],
      [
        "ri",
        "ding"
      ],
      [
        "b",
        "et"
      ],
      [
        "ti",
        "sch"
      ],
      [
        "ol",
        "d"
      ],
      [
        "run",
        "ning"
      ],
      [
        "mehrer",
        "e"
      ],
      [
        "bas",
        "e"
      ],
      [
        "s",
        "einem"
      ],
      [
        "s",
        "on"
      ],
      [
        "wor",
        "k"
      ],
      [
        "h",
        "l"
      ],
      [
        "an",
        "t"
      ],
      [
        "ck",
        "en"
      ],
      [
        "gro",
        "ßen"
      ],
      [
        "ba",
        "by"
      ],
      [
        "tu",
        "re"
      ],
      [
        "p",
        "ro"
      ],
      [
        "je",
        "ans"
      ],
      [
        "p",
        "l"
      ],
      [
        "ha",
        "ar"
      ],
      [
        "q",
        "u"
      ],
      [
        "an",
        "other"
      ],
      [
        "aro",
        "und"
      ],
      [
        "i",
        "ge"
      ],
      [
        "grü",
        "nen"
      ],
      [
        "mo",
        "tor"
      ],
      [
        "jack",
        "e"
      ],
      [
        "f",
        "iel"
      ],
      [
        "schne",
        "e"
      ],
      [
        "gr",
        "und"
      ],
      [
        "y",
        "cle"
      ],
      [
        "jung",
        "en"
      ],
      [
        "it",
        "s"
      ],
      [
        "schau",
        "t"
      ],
      [
        "d",
        "ar"
      ],
      [
        "c",
        "ol"
      ],
      [
        "it",
        "y"
      ],
      [
        "br",
        "ille"
      ],
      [
        "w",
        "er"
      ],
      [
        "fiel",
        "d"
      ],
      [
        "side",
        "walk"
      ],
      [
        "ge",
        "kleide"
      ],
      [
        "l",
        "uft"
      ],
      [
        "be",
        "ach"
      ],
      [
        "ho",
        "ch"
      ],
      [
        "b",
        "an"
      ],
      [
        "t",
        "al"
      ],
      [
        "zu",
        "g"
      ],
      [
        "t",
        "re"
      ],
      [
        "lass",
        "es"
      ],
      [
        "k",
        "op"
      ],
      [
        "f",
        "rei"
      ],
      [
        "ier",
        "t"
      ],
      [
        "str",
        "and"
      ],
      [
        "wa",
        "y"
      ],
      [
        "crow",
        "d"
      ],
[...]
